<unk>	0
<s>	0
</s>	0
<mention>	0
<url>	0
<eot>	0
▁	-1.58179
▁@	-3.40395
▁:	-3.78321
▁RT	-4.01077
s	-4.04051
▁.	-4.2909
▁#	-4.35069
'	-4.53569
▁I	-4.61168
▁the	-4.66239
,	-4.71998
▁to	-4.72506
▁...	-4.84335
▁!	-4.89429
▁a	-4.95485
▁you	-5.01268
_	-5.0479
t	-5.16105
▁and	-5.25436
▁of	-5.3859
▁in	-5.41832
▁is	-5.42118
▁for	-5.4835
"	-5.58386
▁?	-5.61281
▁it	-5.72066
m	-5.78147
▁my	-5.79723
▁on	-5.83083
▁me	-5.84555
▁that	-5.8941
▁this	-5.95071
’	-6.00191
▁be	-6.09325
▁with	-6.13377
▁-	-6.21011
▁so	-6.28874
-	-6.30706
▁your	-6.31504
S	-6.33153
y	-6.34641
▁i	-6.34893
▁at	-6.36407
▁are	-6.37809
re	-6.38427
😂	-6.39565
▁like	-6.40577
ing	-6.41622
d	-6.42721
▁have	-6.43358
&	-6.48195
▁The	-6.486
▁can	-6.51818
▁just	-6.52874
a	-6.53746
▁not	-6.58236
▁but	-6.59056
▁was	-6.6113
▁all	-6.65527
ed	-6.67078
▁up	-6.74114
e	-6.76906
▁we	-6.76941
▁(	-6.77705
▁from	-6.78439
i	-6.79161
▁out	-6.80554
▁love	-6.82506
▁don	-6.83294
️	-6.8332
▁get	-6.83806
▁)	-6.84488
▁do	-6.84608
▁when	-6.85493
1	-6.85659
▁A	-6.8677
▁he	-6.87396
▁what	-6.87524
▁by	-6.88187
▁about	-6.88835
▁if	-6.88899
▁they	-6.8911
x	-6.90618
▁You	-6.92282
n	-6.93296
D	-6.95625
▁who	-6.9607
▁will	-6.96446
▁one	-6.97954
▁/	-6.97983
in	-7.01396
“	-7.02192
er	-7.04714
▁people	-7.05352
o	-7.07008
▁know	-7.07136
▁..	-7.1501
▁now	-7.15393
A	-7.15667
”	-7.15787
ve	-7.16053
▁as	-7.16202
The	-7.18742
*	-7.18885
▁how	-7.19845
▁It	-7.20368
r	-7.20385
▁This	-7.20622
2	-7.2092
▁no	-7.21984
ll	-7.23281
▁want	-7.23488
▁time	-7.24902
M	-7.25153
▁has	-7.25703
▁u	-7.27467
▁his	-7.27846
▁go	-7.28486
3	-7.29789
k	-7.30183
▁or	-7.30238
5	-7.30747
▁an	-7.30813
▁her	-7.32343
▁2	-7.34026
▁more	-7.35115
▁see	-7.36116
▁good	-7.36456
▁day	-7.3693
4	-7.37271
▁We	-7.42085
ly	-7.42165
😭	-7.4232
▁back	-7.43335
▁she	-7.43871
T	-7.44335
I	-7.45241
K	-7.45497
z	-7.46564
▁got	-7.47495
▁need	-7.4818
▁My	-7.48985
▁If	-7.49687
▁new	-7.49787
b	-7.50234
th	-7.50673
h	-7.51393
▁today	-7.52196
▁really	-7.52245
😍	-7.53901
▁make	-7.53929
❤	-7.53955
▁much	-7.54337
c	-7.55772
▁think	-7.5613
▁too	-7.56645
▁our	-7.57358
▁would	-7.57514
▁1	-7.58814
▁been	-7.59409
▁them	-7.59671
▁here	-7.60904
$	-7.61619
the	-7.62609
B	-7.63106
l	-7.63817
▁their	-7.64086
g	-7.64365
▁some	-7.64389
▁there	-7.64549
▁life	-7.65595
0	-7.66753
▁shit	-7.67415
▁never	-7.68593
)	-7.68696
▁only	-7.70047
p	-7.70532
▁lol	-7.70753
▁When	-7.71037
▁over	-7.71144
▁right	-7.72864
▁follow	-7.72939
▁going	-7.7346
▁him	-7.74689
▁still	-7.74795
▁What	-7.75088
C	-7.75527
on	-7.75536
▁why	-7.75908
es	-7.78381
G	-7.78628
▁than	-7.79019
▁say	-7.79238
J	-7.79367
▁even	-7.79854
E	-7.80689
man	-7.81766
▁3	-7.81874
▁someone	-7.83029
N	-7.836
▁>	-7.83633
P	-7.84361
▁had	-7.85918
▁via	-7.861
al	-7.86318
f	-7.86624
▁because	-7.87581
▁@_	-7.87835
▁ever	-7.8794
▁best	-7.88028
▁off	-7.89758
7	-7.90894
▁being	-7.91595
▁That	-7.91937
▁He	-7.92165
▁So	-7.9267
R	-7.92937
H	-7.93008
▁us	-7.93192
▁5	-7.93776
▁THE	-7.95139
▁In	-7.95288
u	-7.95314
▁always	-7.95994
▁look	-7.96684
▁then	-7.96692
▁|	-7.97659
▁after	-7.97773
▁should	-7.98206
▁YOU	-7.98332
▁way	-7.99636
BTS	-7.99782
▁did	-7.99858
▁And	-8.00131
all	-8.00688
▁first	-8.00696
▁To	-8.00992
▁take	-8.01482
▁Trump	-8.01896
▁No	-8.01937
▁year	-8.0247
▁How	-8.03125
L	-8.03522
▁feel	-8.03629
▁please	-8.06914
▁fuck	-8.07729
O	-8.07878
▁Me	-8.08178
▁last	-8.08615
F	-8.09172
▁4	-8.09377
▁these	-8.09432
▁better	-8.09555
▁girl	-8.09788
▁everyone	-8.1012
▁could	-8.1026
▁[	-8.10753
▁am	-8.10879
▁man	-8.124
▁said	-8.12721
▁down	-8.12851
▁were	-8.13264
v	-8.13547
▁New	-8.13691
j	-8.13767
▁night	-8.14698
▁]	-8.147
▁come	-8.14779
▁happy	-8.15515
w	-8.16269
▁Just	-8.16727
▁work	-8.16762
▁let	-8.16979
▁into	-8.17986
▁video	-8.18018
8	-8.18812
▁;	-8.19053
.	-8.19447
▁10	-8.21879
▁Don	-8.21966
Y	-8.21994
🔥	-8.22
an	-8.2232
▁wanna	-8.22968
😩	-8.23127
▁thing	-8.24064
▁every	-8.2432
is	-8.24757
me	-8.25446
▁hate	-8.25818
%	-8.26038
▁+	-8.2605
▁gonna	-8.27216
▁Can	-8.27582
▁im	-8.28267
▁something	-8.28281
▁great	-8.28305
▁person	-8.28418
▁other	-8.28629
▁THIS	-8.28869
▁world	-8.29041
▁ME	-8.29131
▁TO	-8.29339
▁give	-8.29415
en	-8.29711
le	-8.29739
▁again	-8.302
na	-8.30505
or	-8.30803
SOS	-8.30974
ers	-8.3115
6	-8.31384
X	-8.32029
▁Why	-8.32189
▁most	-8.3268
💕	-8.32855
W	-8.33509
▁They	-8.33641
▁But	-8.33681
ie	-8.33788
Z	-8.33792
▁before	-8.34392
▁U	-8.34527
▁where	-8.35597
da	-8.35679
9	-8.36115
▁things	-8.36802
▁For	-8.36829
▁next	-8.36992
▁made	-8.38714
▁real	-8.38877
▁stop	-8.3911
__	-8.39368
to	-8.39816
▁game	-8.40161
no	-8.40199
▁same	-8.40316
▁w	-8.40541
st	-8.40554
▁getting	-8.40558
▁years	-8.40628
▁home	-8.40788
▁bad	-8.40788
▁ass	-8.40992
▁Get	-8.41109
▁<	-8.41298
▁She	-8.41739
▁friends	-8.41753
▁didn	-8.41973
son	-8.42021
▁tonight	-8.42026
▁tell	-8.42104
▁school	-8.42377
of	-8.44089
▁show	-8.44555
us	-8.45217
▁One	-8.45815
▁Thank	-8.45892
V	-8.45991
▁any	-8.46077
ma	-8.46278
▁week	-8.46593
▁win	-8.46997
▁Your	-8.47015
▁fucking	-8.47086
Real	-8.47249
▁All	-8.47288
▁well	-8.47568
▁guys	-8.4875
▁FOLLOW	-8.491
▁doing	-8.49176
▁everything	-8.49525
▁many	-8.50264
la	-8.51452
▁keep	-8.5173
▁miss	-8.52683
co	-8.53071
▁6	-8.53115
U	-8.53329
▁tweet	-8.53517
▁very	-8.5379
▁wait	-8.53969
▁AND	-8.54172
▁won	-8.54345
😘	-8.54368
▁doesn	-8.54455
am	-8.54556
▁help	-8.54778
de	-8.55065
▁IS	-8.55068
▁hope	-8.55448
▁mean	-8.56121
😊	-8.56339
▁Follow	-8.56842
▁thank	-8.56843
▁watch	-8.56929
▁Happy	-8.56947
▁little	-8.56966
▁God	-8.57295
▁SO	-8.57576
▁talk	-8.57725
▁done	-8.57913
my	-8.58263
▁More	-8.5851
▁Do	-8.59141
▁tomorrow	-8.59443
—	-8.5977
▁find	-8.59853
▁Who	-8.60753
▁Now	-8.61106
▁hard	-8.61218
▁MY	-8.61231
▁Please	-8.614
▁its	-8.61788
▁Good	-8.63128
▁bitch	-8.63583
▁days	-8.63606
▁ur	-8.63716
▁play	-8.6385
▁two	-8.64097
▁start	-8.6421
ne	-8.64258
▁On	-8.64542
se	-8.64861
13	-8.64989
👏	-8.65111
▁does	-8.65209
▁live	-8.65434
▁sleep	-8.65564
it	-8.65658
twt	-8.65703
▁put	-8.65737
▁birthday	-8.65806
its	-8.65892
▁girls	-8.6592
▁those	-8.66068
▁Love	-8.66115
and	-8.66731
▁actually	-8.67231
▁old	-8.67868
▁long	-8.67908
▁baby	-8.68773
▁Not	-8.68822
▁free	-8.69338
▁heart	-8.6954
▁morning	-8.69605
▁T	-8.69743
▁says	-8.69871
▁nigga	-8.69947
▁care	-8.70015
▁already	-8.70257
▁away	-8.70373
ty	-8.70399
ta	-8.70442
▁cute	-8.70887
▁C	-8.70972
▁around	-8.71027
▁friend	-8.71268
▁sure	-8.71338
▁own	-8.71775
▁while	-8.72489
▁Let	-8.72536
(	-8.7254
▁There	-8.72991
▁trying	-8.73068
10	-8.73508
🙏	-8.73612
▁big	-8.74072
In	-8.74083
🙌	-8.74102
able	-8.7421
▁beautiful	-8.74363
▁lot	-8.74771
👌	-8.74843
▁makes	-8.75035
ch	-8.75567
▁call	-8.75585
▁7	-8.75633
▁ain	-8.75641
▁Thanks	-8.7575
▁thought	-8.7643
▁through	-8.76571
▁song	-8.77524
💯	-8.7761
~	-8.7802
el	-8.78077
▁FOR	-8.78086
YouTube	-8.79048
▁believe	-8.79399
Love	-8.79404
▁having	-8.79585
▁money	-8.79692
ee	-8.80039
▁nothing	-8.80069
▁Be	-8.80165
love	-8.80266
▁name	-8.81304
▁also	-8.81932
▁another	-8.82211
23	-8.82427
up	-8.82433
im	-8.82552
ah	-8.82707
▁anything	-8.82893
ka	-8.83283
▁wish	-8.83307
be	-8.83844
▁O	-8.8396
✨	-8.84068
▁coming	-8.84171
News	-8.84509
Me	-8.85149
▁thanks	-8.85175
▁looking	-8.85315
▁end	-8.85742
▁anyone	-8.8593
sh	-8.86366
11	-8.86763
ion	-8.86816
do	-8.86839
ley	-8.86874
▁=	-8.87158
▁myself	-8.87637
Team	-8.87672
nd	-8.87705
▁Here	-8.87707
ton	-8.87863
▁IT	-8.87921
12	-8.8796
Day	-8.88373
▁Of	-8.88416
▁Today	-8.88528
▁face	-8.88908
▁Like	-8.891
▁try	-8.89571
▁F	-8.89709
▁guy	-8.89738
▁without	-8.8984
ya	-8.90126
▁20	-8.90223
🏽	-8.905
▁ready	-8.90536
♥	-8.90596
▁phone	-8.90656
▁cause	-8.90717
▁since	-8.90764
RT	-8.90856
▁With	-8.90957
▁yes	-8.91223
▁dont	-8.91457
▁B	-8.91701
▁IN	-8.91724
▁wrong	-8.91838
My	-8.91895
▁nice	-8.92135
▁read	-8.92201
▁left	-8.92206
▁seen	-8.9229
▁remember	-8.92581
▁looks	-8.93228
ING	-8.93319
‘	-8.93573
To	-8.93688
▁making	-8.93856
ca	-8.94129
realDonaldTrump	-8.9419
mo	-8.94252
go	-8.94416
▁amazing	-8.94491
ra	-8.94499
▁Oh	-8.94507
▁Weather	-8.94684
▁family	-8.95133
by	-8.95162
▁fun	-8.95172
▁mom	-8.95195
▁100	-8.95383
▁women	-8.95588
▁isn	-8.95655
▁talking	-8.95774
▁until	-8.95797
▁must	-8.96025
:	-8.96072
▁Lol	-8.96157
less	-8.96161
Q	-8.96246
▁black	-8.96608
▁whole	-8.97191
▁ya	-8.97336
▁yourself	-8.97355
▁change	-8.97386
UK	-8.97425
▁hair	-8.97566
sa	-8.97613
▁use	-8.97653
te	-8.97731
😒	-8.9782
▁vote	-8.98047
💀	-8.98072
▁mind	-8.98188
▁team	-8.98201
ED	-8.98212
▁oh	-8.98492
🏻	-8.98794
▁LOVE	-8.9891
for	-8.9894
▁may	-8.99077
▁Twitter	-8.99487
▁enough	-8.99692
16	-8.99809
▁lmao	-9.00265
▁else	-9.00483
▁pretty	-9.00511
▁P	-9.00625
🏾	-9.0072
▁gotta	-9.00766
▁8	-9.00903
▁part	-9.00969
at	-9.01011
▁music	-9.01266
▁yet	-9.01475
▁Are	-9.02154
:/	-9.02165
▁sex	-9.02199
▁E	-9.02648
as	-9.02751
▁true	-9.02848
▁such	-9.02849
▁which	-9.0287
ic	-9.0293
–	-9.03516
▁US	-9.03609
ro	-9.03749
▁though	-9.0375
RE	-9.04076
▁OF	-9.04824
▁stay	-9.04849
▁might	-9.0493
▁hear	-9.05122
ation	-9.05437
▁Have	-9.05594
▁against	-9.05734
☺	-9.05736
est	-9.05761
•	-9.05795
▁white	-9.06011
Its	-9.06167
land	-9.063
▁damn	-9.06662
▁high	-9.06705
▁head	-9.06799
▁twitter	-9.0717
▁tho	-9.07274
▁G	-9.07331
▁ask	-9.0741
Official	-9.0743
▁Check	-9.07498
▁together	-9.07729
🏼	-9.0777
▁un	-9.07794
▁People	-9.0794
ke	-9.08075
ment	-9.08117
per	-9.08141
one	-9.08463
▁soon	-9.08561
17	-9.08572
▁favorite	-9.08617
▁watching	-9.08622
▁support	-9.08839
▁fans	-9.08892
▁saying	-9.08928
2016	-9.09042
Of	-9.09097
out	-9.09697
☯	-9.09704
▁Y	-9.09732
21	-9.09743
▁Re	-9.09843
ness	-9.10462
▁yeah	-9.10721
24	-9.1076
▁15	-9.10866
▁house	-9.1093
ry	-9.11025
💙	-9.11063
girl	-9.11186
▁leave	-9.11327
▁sorry	-9.11595
▁hit	-9.11677
▁bc	-9.11723
ar	-9.11904
▁told	-9.11962
▁Day	-9.12218
ko	-9.12523
▁went	-9.12725
On	-9.12818
com	-9.12854
min	-9.13251
q	-9.13272
▁Retweet	-9.13436
For	-9.13439
▁full	-9.13449
15	-9.13895
news	-9.14101
li	-9.1435
▁season	-9.14435
▁R	-9.14728
day	-9.14892
▁chance	-9.14924
▁food	-9.14964
so	-9.15394
💖	-9.15434
▁gets	-9.15638
▁Man	-9.15715
▁funny	-9.15723
▁9	-9.15971
boy	-9.16357
▁okay	-9.16455
Mr	-9.16597
ist	-9.16624
▁gone	-9.16659
No	-9.16703
▁buy	-9.16896
▁Go	-9.16896
💜	-9.16992
★	-9.16995
di	-9.17047
▁literally	-9.17074
ha	-9.17335
xo	-9.17464
▁both	-9.17632
18	-9.17659
lo	-9.17671
▁mad	-9.17689
king	-9.17739
▁used	-9.17831
😁	-9.17841
▁kids	-9.17948
▁W	-9.1803
▁single	-9.18034
Da	-9.18036
ho	-9.18094
ni	-9.18258
14	-9.18306
/	-9.18389
mi	-9.18526
▁ON	-9.18863
▁post	-9.19102
▁ALL	-9.19183
▁playing	-9.19336
20	-9.19362
ba	-9.19428
▁boy	-9.19477
ian	-9.19641
▁followers	-9.19643
▁THAT	-9.19803
🎉	-9.20061
MTVHottest	-9.20251
▁At	-9.20279
pa	-9.20327
▁Black	-9.20384
▁text	-9.20476
▁story	-9.20696
▁understand	-9.21
▁12	-9.21221
▁hot	-9.21275
▁Best	-9.21411
age	-9.2145
▁car	-9.2148
▁called	-9.21929
▁cool	-9.22035
▁hours	-9.22106
▁sad	-9.22136
▁ago	-9.22349
▁NOT	-9.22399
19	-9.22448
▁times	-9.22523
ia	-9.22525
▁found	-9.22596
▁ok	-9.22678
xx	-9.23009
TV	-9.23012
▁feeling	-9.23131
😏	-9.23234
De	-9.23302
Is	-9.23317
ter	-9.23359
▁point	-9.2339
▁place	-9.23595
▁See	-9.23692
▁few	-9.24019
▁50	-9.24325
▁eat	-9.24362
▁IM	-9.24449
▁job	-9.24596
Harry	-9.24699
▁PLEASE	-9.24815
Trump	-9.24879
ce	-9.25025
ad	-9.25039
▁top	-9.25126
▁Well	-9.25459
▁forget	-9.25548
▁needs	-9.25733
▁Hi	-9.25958
22	-9.26228
👀	-9.26257
▁photo	-9.26286
▁under	-9.26373
▁crazy	-9.26725
ive	-9.26844
▁woman	-9.26966
bo	-9.27112
▁Hey	-9.27145
▁reason	-9.27272
▁These	-9.27282
▁As	-9.27886
▁wants	-9.27964
▁class	-9.28099
La	-9.28176
ity	-9.28404
▁hell	-9.28419
▁perfect	-9.28497
un	-9.28882
▁lost	-9.28913
IN	-9.28989
ful	-9.29016
▁30	-9.29047
ey	-9.29094
▁weekend	-9.29325
▁party	-9.29363
▁Yes	-9.2942
▁L	-9.29486
Man	-9.2951
aa	-9.29806
Life	-9.30045
▁boys	-9.30145
▁Never	-9.3017
Michael	-9.30182
Go	-9.30229
ies	-9.3024
▁bed	-9.30327
▁NEW	-9.30374
Im	-9.30559
▁far	-9.30631
ine	-9.30657
▁once	-9.30702
Jay	-9.30982
Mc	-9.31009
we	-9.31071
▁President	-9.31109
ler	-9.31119
ga	-9.31122
▁Will	-9.31357
▁during	-9.31668
▁each	-9.31762
▁Watch	-9.31858
▁movie	-9.3199
▁WE	-9.33109
pe	-9.33405
▁probably	-9.33444
▁picture	-9.33626
▁omg	-9.33798
▁check	-9.3407
rd	-9.34114
▁saw	-9.34207
▁Our	-9.34273
▁tired	-9.34407
ji	-9.34514
jo	-9.34529
▁18	-9.34552
▁came	-9.34696
il	-9.34764
id	-9.34778
em	-9.34915
ant	-9.35036
▁yo	-9.35038
97	-9.35064
😳	-9.3511
▁bro	-9.3512
🌸	-9.35844
▁Obama	-9.35974
25	-9.36052
King	-9.36196
con	-9.36334
👍	-9.36566
real	-9.36646
▁niggas	-9.36682
▁haha	-9.36709
▁different	-9.36777
▁Great	-9.36832
win	-9.37235
rs	-9.37335
line	-9.37364
▁album	-9.37455
▁smile	-9.37619
▁comes	-9.37626
💗	-9.37651
▁god	-9.37817
lee	-9.37898
Be	-9.37943
▁taking	-9.37943
▁run	-9.37991
You	-9.38058
▁open	-9.38298
▁moment	-9.38316
▁turn	-9.38387
bts	-9.38541
ling	-9.38754
life	-9.38761
▁2017	-9.38799
▁followed	-9.3884
So	-9.38847
Music	-9.38923
wa	-9.39074
▁BE	-9.3924
▁thinking	-9.39255
▁kind	-9.39467
▁wanted	-9.39717
▁country	-9.39974
▁After	-9.39989
ny	-9.40041
▁dead	-9.40225
▁deal	-9.40259
lin	-9.40307
▁matter	-9.40309
▁vs	-9.40356
▁goes	-9.40489
▁Some	-9.40631
ish	-9.40845
▁break	-9.41028
ner	-9.41103
sos	-9.412
ER	-9.41308
▁NO	-9.41356
ur	-9.41409
LA	-9.41482
▁meet	-9.41852
ate	-9.41889
▁Only	-9.41966
▁proud	-9.42032
▁set	-9.42145
▁dis	-9.42513
▁men	-9.42637
iam	-9.4265
▁between	-9.42669
▁working	-9.42717
⠀	-9.42873
▁2016	-9.42977
▁America	-9.43012
😔	-9.43058
▁took	-9.43102
▁Her	-9.4321
ge	-9.43567
ki	-9.43773
▁eyes	-9.43883
▁Time	-9.43891
▁past	-9.43959
▁Christmas	-9.44129
justinbieber	-9.44308
▁liked	-9.44389
▁From	-9.44426
▁May	-9.44427
▁N	-9.44481
▁hand	-9.4452
99	-9.44539
▁room	-9.44547
time	-9.44578
▁fight	-9.44761
les	-9.45
▁Fuck	-9.45061
▁White	-9.45183
▁@5	-9.45248
▁following	-9.45431
▁fan	-9.45461
▁bring	-9.45718
▁excited	-9.45943
▁IF	-9.4595
▁ARE	-9.46011
▁guess	-9.46079
ALDUB	-9.46091
▁listen	-9.46092
ja	-9.46163
▁happen	-9.46343
NiallOfficial	-9.46432
▁anymore	-9.4646
▁least	-9.46713
▁summer	-9.46756
▁pay	-9.46773
▁2014	-9.46831
▁rt	-9.46843
Lo	-9.47227
▁finally	-9.4765
▁First	-9.47663
▁close	-9.47849
Al	-9.4789
00	-9.47941
😎	-9.48104
▁Up	-9.48148
▁16	-9.48436
yo	-9.48498
ng	-9.48651
ti	-9.48788
you	-9.48854
music	-9.48907
ri	-9.48934
▁lose	-9.49011
art	-9.49018
▁Justin	-9.49253
Styles	-9.49352
▁media	-9.4937
Luke	-9.49521
▁relationship	-9.49672
▁hurt	-9.49715
ass	-9.49797
▁tweets	-9.49802
▁minutes	-9.49932
▁World	-9.50069
▁Make	-9.50163
Black	-9.50342
den	-9.50349
▁WHAT	-9.5048
uk	-9.5057
▁dog	-9.50796
♡	-9.50823
▁DO	-9.51229
za	-9.51399
US	-9.51556
▁fall	-9.51631
▁move	-9.51634
▁started	-9.51651
cha	-9.51695
▁word	-9.51721
po	-9.51898
ting	-9.52181
ism	-9.52238
▁forever	-9.52278
▁stuff	-9.52293
▁haven	-9.52333
▁Top	-9.52413
▁ppl	-9.52494
We	-9.52526
▁second	-9.52638
▁11	-9.52668
han	-9.5284
Liam	-9.52844
pm	-9.52883
▁waiting	-9.52937
▁wasn	-9.52955
▁Where	-9.52984
TH	-9.52994
▁body	-9.53137
▁giving	-9.53216
▁retweet	-9.53466
Jack	-9.53467
▁die	-9.53513
Re	-9.5354
Louis	-9.53578
69	-9.5387
▁heard	-9.53892
ak	-9.53898
▁almost	-9.53935
official	-9.54003
▁Friday	-9.54082
30	-9.54284
▁water	-9.5451
way	-9.54632
ham	-9.54699
And	-9.54767
▁words	-9.5478
back	-9.55173
mark	-9.55182
👉	-9.55272
Mo	-9.55565
▁His	-9.55661
et	-9.55746
▁OMG	-9.55747
▁important	-9.55835
▁half	-9.56028
der	-9.56097
▁Take	-9.56307
▁alone	-9.56456
▁RETWEET	-9.56483
🤣	-9.56499
___	-9.56715
▁de	-9.56906
▁stupid	-9.57077
Big	-9.57246
▁means	-9.57395
▁Facebook	-9.57414
ii	-9.57418
▁An	-9.57445
▁2018	-9.57666
▁late	-9.57763
▁future	-9.57855
02	-9.57926
☀	-9.57987
Girl	-9.58395
um	-9.58433
▁bit	-9.58446
▁cry	-9.58514
🙄	-9.58527
33	-9.58577
▁Look	-9.58669
▁GO	-9.58698
▁send	-9.5871
▁House	-9.58724
our	-9.58738
World	-9.58751
▁dream	-9.58764
▁Every	-9.58804
iHeartAwards	-9.58868
▁WITH	-9.59008
ft	-9.59112
🙈	-9.59222
ST	-9.59274
mar	-9.59387
▁asked	-9.5942
bi	-9.5942
oh	-9.5951
dy	-9.59579
▁early	-9.59805
men	-9.60073
chi	-9.60157
▁question	-9.60192
▁maybe	-9.60408
▁19	-9.60454
▁parents	-9.60522
gi	-9.60629
▁happened	-9.60645
star	-9.6065
▁gave	-9.60699
▁month	-9.60708
🤔	-9.60912
▁dad	-9.60965
old	-9.60987
💥	-9.61101
▁worth	-9.61156
▁Out	-9.61405
ana	-9.6144
Up	-9.61552
▁rest	-9.61658
▁14	-9.61731
▁idea	-9.61872
▁fact	-9.62077
xxx	-9.62115
▁special	-9.62222
▁account	-9.62239
SA	-9.62587
▁Life	-9.62626
▁nobody	-9.62663
▁Come	-9.62717
01	-9.62726
▁American	-9.62796
▁trust	-9.62827
▁date	-9.62858
▁PM	-9.63007
red	-9.63014
ns	-9.63158
▁later	-9.63176
hi	-9.63244
▁Free	-9.63283
▁crying	-9.63329
▁Did	-9.63413
Star	-9.6352
he	-9.63661
^	-9.63749
▁business	-9.63797
▁HE	-9.64029
vi	-9.64037
▁JUST	-9.64059
off	-9.641
▁beat	-9.64469
ol	-9.64597
💛	-9.64615
▁fine	-9.64717
▁NOW	-9.6479
▁power	-9.64818
▁@__	-9.65049
▁group	-9.6505
▁million	-9.65232
▁become	-9.65242
▁sick	-9.65262
😴	-9.6527
▁young	-9.65408
That	-9.65567
▁fake	-9.65581
▁problem	-9.65644
eee	-9.65654
▁act	-9.65777
Dr	-9.65944
live	-9.66084
▁AM	-9.66088
lu	-9.66311
Live	-9.66527
ent	-9.66571
▁deserve	-9.6664
▁awesome	-9.66738
▁wow	-9.66751
😌	-9.66804
£	-9.6681
Ra	-9.66874
▁Channel	-9.67094
▁side	-9.67204
Ka	-9.67255
▁Or	-9.67362
▁seeing	-9.67375
▁walk	-9.67404
▁knew	-9.6741
▁LIKE	-9.6744
▁WHO	-9.67444
One	-9.67542
Ro	-9.67595
▁worst	-9.67648
John	-9.67681
26	-9.67729
▁YOUR	-9.67889
▁using	-9.68024
▁posted	-9.68184
▁aren	-9.68501
▁bout	-9.68568
▁ugly	-9.68648
▁mine	-9.68654
▁17	-9.68753
▁fast	-9.68757
▁kill	-9.68779
sha	-9.68865
jay	-9.68892
▁number	-9.68897
fan	-9.68903
▁2015	-9.68974
▁Wow	-9.68989
▁behind	-9.68994
▁stand	-9.69248
40	-9.69286
▁htt	-9.69318
Sports	-9.69344
▁Updates	-9.69385
▁swear	-9.69426
▁By	-9.69496
free	-9.69529
▁wear	-9.6959
▁months	-9.69828
yy	-9.69909
All	-9.69966
✌	-9.69992
USA	-9.70084
▁wonder	-9.70277
▁yesterday	-9.70328
mc	-9.70415
LY	-9.7052
▁Im	-9.70527
fa	-9.70539
95	-9.70684
▁pic	-9.70696
ck	-9.70763
▁dude	-9.70825
▁learn	-9.70978
ted	-9.71014
▁cant	-9.71119
>	-9.71139
💞	-9.71153
▁games	-9.71167
▁others	-9.7121
▁news	-9.71241
ju	-9.71317
▁CAN	-9.71501
▁bitches	-9.71572
27	-9.71679
ze	-9.7169
✔	-9.71702
os	-9.71708
que	-9.71772
▁share	-9.71775
ster	-9.7187
aaa	-9.71871
▁fire	-9.71901
ang	-9.71966
▁mood	-9.72091
▁UP	-9.72101
Vote	-9.72194
ger	-9.72245
▁Big	-9.72296
07	-9.72388
Jo	-9.72393
▁Yeah	-9.72398
Co	-9.72621
▁book	-9.7273
▁Back	-9.72903
▁weird	-9.73061
🇸	-9.73169
▁DM	-9.73293
▁25	-9.73322
va	-9.73343
▁pls	-9.73449
▁Want	-9.73463
▁straight	-9.73467
mon	-9.73606
08	-9.73761
car	-9.73768
▁Gain	-9.73771
▁Video	-9.73862
NY	-9.74
▁AT	-9.74023
▁instead	-9.74161
🎶	-9.74232
well	-9.74505
Le	-9.74506
▁Live	-9.74669
▁BACK	-9.7471
98	-9.74716
mer	-9.74722
▁hour	-9.74756
side	-9.7479
Not	-9.74856
▁brother	-9.74924
▁Keep	-9.75076
▁super	-9.75142
96	-9.75208
28	-9.75312
du	-9.75473
09	-9.75608
▁sometimes	-9.75649
▁children	-9.75719
GOT	-9.75833
▁self	-9.75889
Lu	-9.75909
Red	-9.75916
▁killed	-9.75949
▁ex	-9.76029
▁respect	-9.76049
▁Birthday	-9.7606
💋	-9.76067
Just	-9.76081
▁either	-9.7628
ex	-9.7639
🇺	-9.76563
fi	-9.76586
▁wouldn	-9.76639
😉	-9.76783
▁Need	-9.76812
▁De	-9.76842
Miss	-9.76877
▁hey	-9.77239
Chris	-9.77353
▁short	-9.77356
▁join	-9.77399
LE	-9.7747
▁voice	-9.77496
ky	-9.77498
God	-9.77511
▁Got	-9.77571
▁three	-9.77581
▁pick	-9.77597
ally	-9.77614
▁click	-9.77623
▁af	-9.77643
Mike	-9.77672
😈	-9.77759
not	-9.78045
06	-9.78119
▁Everyone	-9.78219
▁wake	-9.78273
lil	-9.78277
▁laugh	-9.78393
▁cut	-9.78411
▁somebody	-9.78511
ous	-9.78528
ary	-9.78618
▁pre	-9.78631
▁sweet	-9.78668
har	-9.78884
▁social	-9.79136
▁shot	-9.7916
▁St	-9.79298
▁save	-9.79342
▁FREE	-9.7944
▁Sunday	-9.79529
▁agree	-9.79596
FC	-9.79598
▁realize	-9.79703
▁type	-9.79791
gameinsigh	-9.79794
sex	-9.80019
▁Still	-9.80042
▁takes	-9.80052
♀	-9.80181
si	-9.8019
baby	-9.80216
▁outside	-9.80229
▁FUCK	-9.80247
▁strong	-9.80608
James	-9.80671
💪	-9.80763
▁hold	-9.80792
NA	-9.80849
100	-9.80873
don	-9.80968
▁@1	-9.8111
che	-9.81197
▁checked	-9.81205
Free	-9.81226
▁boyfriend	-9.81243
▁Was	-9.81455
▁About	-9.81463
94	-9.81473
▁till	-9.81631
cat	-9.81655
▁shows	-9.81672
ney	-9.81781
▁gain	-9.81994
▁kid	-9.82142
▁enjoy	-9.82175
💚	-9.82209
▁Last	-9.82306
93	-9.82317
█	-9.82449
▁luck	-9.82516
▁Year	-9.82607
Now	-9.82653
▁feelings	-9.8267
▁Donald	-9.82691
▁idk	-9.82888
su	-9.83014
cy	-9.83084
▁child	-9.83297
Daily	-9.83324
DJ	-9.83378
▁case	-9.83433
88	-9.83462
Boy	-9.8352
▁Lady	-9.83535
😅	-9.83576
▁Full	-9.83606
▁dick	-9.83669
▁history	-9.83857
With	-9.83861
▁rn	-9.83907
▁VIDEO	-9.83963
▁welcome	-9.84045
NBA	-9.84089
▁public	-9.84133
▁sign	-9.84179
90	-9.84343
▁Stop	-9.84468
ye	-9.84534
▁Women	-9.84577
New	-9.84668
▁13	-9.84846
▁shut	-9.84973
Ma	-9.85008
▁gay	-9.85123
ron	-9.85256
world	-9.85313
She	-9.85363
vote	-9.85433
▁tried	-9.85459
▁V	-9.85563
▁Listen	-9.8558
▁police	-9.85592
▁Sometimes	-9.85658
light	-9.85664
▁cold	-9.85709
▁everyday	-9.8573
▁weeks	-9.85936
▁smh	-9.86028
▁death	-9.86061
▁front	-9.86073
It	-9.86145
💘	-9.86235
BB	-9.8635
ap	-9.86505
tic	-9.86508
ash	-9.86536
af	-9.86648
▁yall	-9.86653
Ar	-9.86741
▁pictures	-9.86819
Follow	-9.86887
tor	-9.86889
😱	-9.86909
▁honestly	-9.86939
Nation	-9.87043
era	-9.87159
▁hi	-9.87295
ul	-9.87313
like	-9.87403
je	-9.87426
▁Instagram	-9.87578
▁Most	-9.87762
▁fucked	-9.87792
▁couldn	-9.8783
▁everybody	-9.87838
io	-9.87854
😋	-9.8794
▁United	-9.88037
!!	-9.88064
▁Even	-9.88158
▁seriously	-9.88238
van	-9.88345
▁truth	-9.88403
bb	-9.88461
▁Hope	-9.88509
▁online	-9.88517
her	-9.88614
Best	-9.88717
▁hands	-9.88762
▁broke	-9.88903
▁Over	-9.88937
▁ONE	-9.89012
Ne	-9.89024
▁lie	-9.89029
▁Music	-9.8905
▁college	-9.89114
▁running	-9.89144
dan	-9.8924
▁state	-9.89282
50	-9.89292
ize	-9.89367
▁line	-9.89418
▁forward	-9.89446
sky	-9.89683
03	-9.8972
with	-9.89756
▁Someone	-9.89786
▁City	-9.898
Mar	-9.89866
ff	-9.89964
rose	-9.89982
▁retweets	-9.90023
hot	-9.90054
▁latest	-9.90249
over	-9.90283
45	-9.90378
porn	-9.90428
▁24	-9.90471
▁easy	-9.90474
tae	-9.90567
77	-9.90573
wood	-9.9067
29	-9.90685
▁OUT	-9.90728
AM	-9.90755
head	-9.90769
nt	-9.9079
MTVStars	-9.90809
Do	-9.90864
▁living	-9.9092
zz	-9.91058
2017	-9.91129
▁rather	-9.91143
▁course	-9.91147
▁HAVE	-9.91376
▁wearing	-9.9143
fe	-9.91521
▁GET	-9.91594
Mark	-9.91603
▁LOL	-9.91659
ever	-9.91693
▁pass	-9.91702
▁ht	-9.91893
tv	-9.9203
Fan	-9.92136
Sha	-9.92171
▁small	-9.92292
▁tryna	-9.92304
air	-9.92361
▁human	-9.92449
▁X	-9.9271
😢	-9.92724
Your	-9.9287
EXO	-9.92911
▁Home	-9.92938
▁biggest	-9.92976
▁lil	-9.93002
▁Saturday	-9.93026
ig	-9.93063
NowPlaying	-9.93114
💦	-9.93139
oo	-9.93231
ir	-9.93435
hu	-9.93557
▁plan	-9.93561
▁couple	-9.93628
▁chill	-9.93634
john	-9.93718
😜	-9.93839
Payne	-9.93861
▁answer	-9.93948
ph	-9.9395
kin	-9.93952
04	-9.94516
bu	-9.94587
ok	-9.94666
hh	-9.94713
black	-9.94783
big	-9.94786
▁Summer	-9.94882
ow	-9.94903
💁	-9.94907
▁dumb	-9.94984
▁voting	-9.94997
sen	-9.95072
Video	-9.95111
ku	-9.95111
Queen	-9.95121
El	-9.95141
Ru	-9.95153
▁available	-9.95157
ver	-9.9531
▁attention	-9.95315
low	-9.95376
▁News	-9.95376
▁Gaga	-9.95393
WWE	-9.95401
book	-9.95547
FF	-9.95618
can	-9.95619
Lee	-9.95647
tan	-9.95669
▁inside	-9.95678
kar	-9.9584
ME	-9.95855
▁goal	-9.95982
ac	-9.95992
▁Direction	-9.96018
pan	-9.96064
▁list	-9.96083
▁Hillary	-9.96158
Tweet	-9.96181
▁sister	-9.96185
😫	-9.96352
▁president	-9.9642
▁WANT	-9.96471
▁telling	-9.96499
Con	-9.965
▁London	-9.96511
jack	-9.96544
▁WAS	-9.96632
▁speak	-9.9668
▁dance	-9.96741
teen	-9.96884
ci	-9.96931
lan	-9.96938
pics	-9.96949
05	-9.96981
▁kinda	-9.97112
▁State	-9.97119
India	-9.97127
ab	-9.97168
ker	-9.97188
Tomlinson	-9.97245
tha	-9.97255
▁entire	-9.97337
gu	-9.97362
job	-9.97478
▁knows	-9.97487
BestFanArmy	-9.97493
▁Join	-9.97623
44	-9.97624
▁John	-9.9771
David	-9.97912
bs	-9.97941
bar	-9.97955
▁drink	-9.97986
key	-9.98003
▁link	-9.98006
TA	-9.98018
Show	-9.98046
TY	-9.9829
▁Clinton	-9.98292
vo	-9.98384
▁stage	-9.98424
NE	-9.98468
▁cannot	-9.98507
▁Because	-9.98546
▁Then	-9.98695
Tweets	-9.98703
cam	-9.98727
▁played	-9.98729
jin	-9.98746
▁glad	-9.98863
▁Damn	-9.98887
▁Super	-9.99054
Ashton	-9.99122
ON	-9.99175
▁control	-9.9922
new	-9.99245
▁happens	-9.9931
uh	-9.99459
ou	-9.99499
Happy	-9.99505
▁sound	-9.99505
▁football	-9.99506
▁High	-9.99548
dr	-9.99568
led	-9.99606
tech	-9.99641
▁stats	-9.99707
▁loved	-9.99746
▁goals	-9.99757
Pro	-9.9977
An	-9.99866
▁light	-9.99878
Alex	-9.99895
ina	-10.0004
🌟	-10.0008
▁Remember	-10.001
▁spend	-10.0029
Lil	-10.0037
CNN	-10.0041
CA	-10.0048
▁sit	-10.0054
He	-10.0057
▁automatically	-10.0057
II	-10.0065
kim	-10.0076
▁Really	-10.009
team	-10.0095
▁safe	-10.0105
▁joke	-10.0105
▁Monday	-10.0115
AL	-10.0117
▁Game	-10.0128
ber	-10.0131
ford	-10.0139
ps	-10.0143
▁LIVE	-10.0155
▁app	-10.0161
▁songs	-10.0167
▁fat	-10.0169
ru	-10.0172
▁wife	-10.018
MTV	-10.0184
Un	-10.0187
▁pain	-10.0193
▁episode	-10.0197
2015	-10.0204
ari	-10.0205
▁Show	-10.0213
gar	-10.0214
Rep	-10.0219
▁calling	-10.0228
▁Girls	-10.0231
Ni	-10.0232
ence	-10.0232
IT	-10.0236
▁OH	-10.0246
Matt	-10.0252
ten	-10.0256
▁drop	-10.0256
MA	-10.0257
▁feels	-10.0261
ino	-10.0262
▁drive	-10.0265
▁asking	-10.0271
sam	-10.0276
pin	-10.0283
▁pussy	-10.0284
▁order	-10.0286
▁wit	-10.0286
▁exactly	-10.0297
▁Another	-10.0306
▁FOLLOWERS	-10.031
▁pro	-10.0314
▁definitely	-10.0315
Radio	-10.0318
▁sense	-10.0324
▁Photo	-10.0325
AS	-10.0326
rt	-10.0326
▁BUT	-10.034
Baby	-10.0352
let	-10.0355
▁wtf	-10.0356
down	-10.0361
2014	-10.0365
▁Maybe	-10.0366
vs	-10.0366
THE	-10.0374
▁bae	-10.0377
▁Followers	-10.04
▁York	-10.04
▁whatever	-10.0408
just	-10.0412
▁Lmao	-10.0414
▁serious	-10.0422
▁mother	-10.0433
ID	-10.0439
▁Un	-10.0445
op	-10.0446
▁catch	-10.0451
▁level	-10.0458
▁21	-10.0471
ier	-10.0474
Sam	-10.0476
▁message	-10.0483
▁lead	-10.051
▁em	-10.0529
net	-10.0533
field	-10.0541
▁Con	-10.0555
▁eating	-10.0555
ani	-10.0571
app	-10.0575
ita	-10.0575
32	-10.0579
Fact	-10.058
par	-10.0582
▁missing	-10.0582
Facts	-10.0583
luke	-10.0589
▁THEY	-10.0591
▁missed	-10.0598
▁red	-10.0598
▁annoying	-10.06
Time	-10.0603
▁imagine	-10.0607
▁South	-10.0608
AP	-10.062
young	-10.0625
92	-10.0633
DC	-10.0636
▁quick	-10.0637
▁listening	-10.065
♂	-10.0656
ard	-10.0656
▁grow	-10.0661
▁EVERYONE	-10.0675
▁Co	-10.0708
34	-10.0712
▁babe	-10.0719
more	-10.0729
▁starting	-10.0729
▁cover	-10.073
bby	-10.0732
cal	-10.0787
Joe	-10.0805
▁government	-10.0806
▁attack	-10.081
▁less	-10.0816
▁):	-10.0824
▁Dear	-10.0836
war	-10.084
▁West	-10.0845
⁠	-10.0851
ep	-10.0854
▁starts	-10.0857
▁sounds	-10.0858
sta	-10.087
▁HAPPY	-10.0874
ot	-10.0875
▁soul	-10.0875
ball	-10.0875
pro	-10.088
ik	-10.0884
-)	-10.0888
bee	-10.09
▁40	-10.0903
gg	-10.0907
Sa	-10.0913
nn	-10.0921
Car	-10.0934
house	-10.0937
▁Sorry	-10.0941
ance	-10.0944
SS	-10.0945
▁2019	-10.0949
Out	-10.0949
➡	-10.0958
▁Michael	-10.096
ay	-10.096
▁lives	-10.0967
RETWEET	-10.0981
▁interview	-10.0984
ES	-10.0985
Bo	-10.0995
▁boo	-10.0998
101	-10.1011
▁enter	-10.1012
Chi	-10.1012
fu	-10.1021
▁code	-10.1026
▁FUCKING	-10.103
▁pics	-10.1031
PM	-10.1034
▁appreciate	-10.1035
▁tickets	-10.1036
GB	-10.1046
▁sexy	-10.1049
▁Also	-10.1053
▁record	-10.1059
▁gold	-10.1063
Na	-10.1063
del	-10.1064
PH	-10.1065
▁Red	-10.1073
▁cuz	-10.1074
she	-10.1091
chan	-10.1096
▁Pro	-10.1103
▁absolutely	-10.1116
▁Always	-10.1119
ks	-10.1123
▁Hot	-10.1124
TO	-10.1131
▁worry	-10.1134
ken	-10.1137
ray	-10.1138
▁campaign	-10.1142
▁seems	-10.1145
▁Night	-10.115
▁BREAKING	-10.115
▁Should	-10.1156
▁sent	-10.1158
▁laughing	-10.1177
▁Nothing	-10.1187
bri	-10.1192
▁WHY	-10.1193
▁ones	-10.1197
may	-10.1214
💔	-10.1219
▁player	-10.1223
Tha	-10.1227
▁died	-10.1233
Young	-10.124
▁drunk	-10.1248
▁Two	-10.1254
work	-10.1257
▁Baby	-10.126
au	-10.1263
▁taken	-10.1283
▁health	-10.129
▁Read	-10.1297
tin	-10.13
Blue	-10.1314
aw	-10.1318
bot	-10.132
▁clear	-10.1329
Li	-10.1331
💓	-10.1335
▁GOD	-10.1341
Paul	-10.1343
▁needed	-10.1346
▁India	-10.1357
▁photos	-10.1359
▁Bieber	-10.1367
▁Give	-10.1373
▁Being	-10.1376
nick	-10.1379
🚨	-10.1386
▁happiness	-10.1387
▁truly	-10.1392
▁Off	-10.1398
▁reading	-10.1404
31	-10.1407
wan	-10.1413
▁Right	-10.1414
▁WILL	-10.1415
ArianaGrande	-10.1416
camerondallas	-10.1419
Win	-10.1424
cc	-10.1427
ise	-10.1429
▁porn	-10.143
▁gift	-10.1436
▁Hello	-10.1437
Ben	-10.1442
At	-10.1459
Ri	-10.146
▁Too	-10.1461
▁bored	-10.1462
Cam	-10.1465
mac	-10.1472
▁expect	-10.1474
zi	-10.1475
Porn	-10.1481
town	-10.1482
👑	-10.1495
▁North	-10.1499
▁final	-10.1505
ben	-10.1507
▁experience	-10.1507
Tom	-10.1507
ez	-10.1511
ann	-10.1517
▁changed	-10.1519
▁July	-10.1522
▁reply	-10.153
▁DOO	-10.1533
▁2013	-10.1533
▁players	-10.1535
Art	-10.1535
▁iPhone	-10.1545
ated	-10.1546
ali	-10.155
▁meeting	-10.155
POTUS	-10.1552
ite	-10.1555
By	-10.1565
▁law	-10.1567
that	-10.157
▁Would	-10.1576
▁videos	-10.1581
Tour	-10.1597
zy	-10.1597
▁visit	-10.1598
▁Girl	-10.1604
▁Looking	-10.1605
😡	-10.1615
▁Car	-10.1615
▁near	-10.1621
▁due	-10.163
Rose	-10.163
Good	-10.1634
▁tbh	-10.1635
▁scared	-10.1638
▁Harry	-10.1638
NOW	-10.1644
dj	-10.1645
miss	-10.1645
gen	-10.1646
▁girlfriend	-10.1665
▁Part	-10.1666
ship	-10.1668
ring	-10.1671
▁School	-10.1675
▁Men	-10.1697
55	-10.1701
Di	-10.1702
▁city	-10.1704
follow	-10.1706
😤	-10.1725
yyy	-10.1725
White	-10.1729
kay	-10.1731
▁Click	-10.1732
ile	-10.1734
Cat	-10.1736
▁Russia	-10.1738
▁MUST	-10.1739
66	-10.1744
CH	-10.1744
tu	-10.1745
nu	-10.176
⚡	-10.1762
mal	-10.1768
gay	-10.1775
anna	-10.1783
▁dm	-10.1798
tweet	-10.1799
▁Artist	-10.1808
good	-10.1809
tra	-10.181
▁Know	-10.1814
▁release	-10.1822
Yo	-10.1827
mm	-10.1833
ooo	-10.1848
▁forgot	-10.1853
Nick	-10.1853
ram	-10.1853
60	-10.1855
tch	-10.1856
shi	-10.1867
EMABiggestFans	-10.1869
br	-10.1872
Mag	-10.1876
Mac	-10.1878
IS	-10.1889
▁longer	-10.1891
▁tour	-10.1895
▁report	-10.1897
Fi	-10.1909
▁Ok	-10.1909
▁deep	-10.1918
port	-10.1925
▁watched	-10.193
RO	-10.1946
mu	-10.1948
▁Jesus	-10.1949
yu	-10.1954
Super	-10.1961
ran	-10.1963
PS	-10.1976
▁Find	-10.1983
mr	-10.1986
pr	-10.1986
▁ONLY	-10.1986
▁MUCH	-10.199
▁match	-10.1997
🤷	-10.2002
▁shouldn	-10.2003
▁club	-10.2007
Football	-10.2008
get	-10.2009
iz	-10.201
▁Star	-10.2017
kid	-10.2018
▁Congrats	-10.2021
end	-10.2022
😑	-10.2024
if	-10.2045
ong	-10.2057
pi	-10.2058
▁test	-10.2075
Quote	-10.2076
▁UK	-10.2078
▁Apple	-10.2084
eh	-10.2084
✊	-10.2089
will	-10.209
▁sale	-10.2092
▁looked	-10.2098
👇	-10.21
▁energy	-10.2102
Cor	-10.2116
ble	-10.2119
ill	-10.2127
▁throw	-10.2135
NFL	-10.2137
▁HOW	-10.2139
▁concert	-10.2141
▁James	-10.2148
▁gives	-10.2153
89	-10.2153
ek	-10.2156
▁worse	-10.2164
▁Morning	-10.2169
Get	-10.217
▁anti	-10.2182
▁GOOD	-10.2183
85	-10.2192
▁performance	-10.2196
Don	-10.2198
▁Use	-10.2198
▁eye	-10.2208
qui	-10.2213
rap	-10.2214
cu	-10.2215
android	-10.2218
▁war	-10.2222
Dan	-10.2227
▁possible	-10.2229
rr	-10.223
🌹	-10.2235
35	-10.2248
▁racist	-10.2249
🙊	-10.2252
Bad	-10.226
39	-10.2265
▁VOTE	-10.2268
OR	-10.2269
Fa	-10.227
Calum	-10.2271
▁minute	-10.2273
▁TV	-10.2279
▁WATCH	-10.2281
▁mouth	-10.2282
AD	-10.2284
2018	-10.2285
▁write	-10.229
▁brain	-10.229
▁office	-10.2299
▁YES	-10.2301
▁ball	-10.2301
▁calls	-10.2305
👊	-10.2311
80	-10.2314
▁supposed	-10.2315
▁huge	-10.2315
48	-10.2317
Ca	-10.2327
▁winning	-10.2328
▁felt	-10.2333
city	-10.2333
▁members	-10.2334
ski	-10.2334
🤦	-10.2339
▁Google	-10.2341
💃	-10.235
your	-10.2356
▁added	-10.2363
▁Okay	-10.2366
Bi	-10.2377
Ki	-10.2381
band	-10.2382
▁piece	-10.2382
▁Tell	-10.2382
ice	-10.2389
West	-10.2391
cho	-10.2394
▁treat	-10.2402
Ryan	-10.2404
▁Had	-10.2414
zaynmalik	-10.2418
UN	-10.2432
▁cat	-10.2442
Ko	-10.2446
▁seconds	-10.2447
▁along	-10.2448
harry	-10.2451
▁Help	-10.2457
😄	-10.2466
▁200	-10.2474
ella	-10.2483
dog	-10.2489
Ms	-10.2503
▁middle	-10.2508
▁step	-10.251
SE	-10.2516
91	-10.252
▁unfollowed	-10.2522
ide	-10.2524
▁movies	-10.2532
fuck	-10.2532
Ja	-10.2545
Book	-10.2548
Deals	-10.2549
chris	-10.2555
Kay	-10.2557
IL	-10.2558
▁extra	-10.2563
▁questions	-10.2563
els	-10.2564
▁event	-10.2565
▁female	-10.2573
▁weather	-10.2581
▁star	-10.2584
▁round	-10.2587
▁cr	-10.2589
▁choose	-10.2591
ating	-10.2596
▁dreams	-10.261
Ga	-10.2611
▁system	-10.2618
▁Which	-10.2624
▁fav	-10.2624
▁page	-10.2629
▁difference	-10.2633
▁Buy	-10.2635
▁ride	-10.2636
Top	-10.2644
ping	-10.2648
▁KNOW	-10.265
bin	-10.2651
▁hoes	-10.2653
ABC	-10.2655
die	-10.2661
▁fuckin	-10.2664
▁con	-10.2666
KCA	-10.2667
87	-10.2672
Ash	-10.2676
cor	-10.2684
aaaa	-10.2686
▁meant	-10.2689
▁add	-10.27
▁gun	-10.2702
▁tax	-10.2704
lie	-10.2713
😻	-10.2717
▁SHE	-10.2721
▁Congratulations	-10.2724
▁EXO	-10.2727
queen	-10.2729
ew	-10.273
▁Work	-10.2732
elle	-10.2733
▁Very	-10.2733
▁tf	-10.2736
box	-10.2737
Ti	-10.2737
vin	-10.2741
▁clean	-10.2743
▁update	-10.2746
▁Does	-10.2753
AI	-10.2759
ren	-10.276
▁himself	-10.2764
▁seem	-10.277
▁low	-10.2775
ade	-10.2776
MO	-10.2793
ped	-10.2799
post	-10.2801
Pics	-10.2818
▁DAY	-10.2822
▁air	-10.2838
▁kiss	-10.2839
58	-10.2842
▁Things	-10.2845
LL	-10.2848
123	-10.2851
🎄	-10.2854
▁follows	-10.2857
dar	-10.2858
fc	-10.2861
show	-10.287
▁poor	-10.2873
▁rain	-10.2877
▁Stay	-10.2881
ight	-10.2888
▁voted	-10.2891
▁suck	-10.2893
val	-10.2896
Night	-10.2898
stone	-10.2899
Talk	-10.2901
▁door	-10.2901
ized	-10.2911
▁trip	-10.2913
boo	-10.2918
zo	-10.2922
▁BEST	-10.2929
ane	-10.2939
76	-10.2947
▁turned	-10.2955
ola	-10.2959
▁track	-10.2964
dee	-10.2965
🙃	-10.2975
ville	-10.2976
ery	-10.2981
top	-10.2984
Angel	-10.2986
az	-10.2988
▁ahead	-10.3
tri	-10.3002
Rock	-10.3009
ial	-10.3013
🐧	-10.3014
mike	-10.3015
▁Has	-10.3019
tion	-10.3019
▁Taylor	-10.3023
▁paid	-10.303
▁skin	-10.3049
▁ill	-10.3059
City	-10.3066
rich	-10.3068
😕	-10.3073
▁yea	-10.3074
ure	-10.3076
esh	-10.308
✅	-10.308
▁MORE	-10.3082
hr	-10.309
AC	-10.31
lyn	-10.31
Hot	-10.311
▁WHEN	-10.3115
▁daughter	-10.312
▁fear	-10.3125
ties	-10.3126
72	-10.3146
▁card	-10.315
HO	-10.315
fo	-10.3152
night	-10.3155
▁father	-10.3159
Ed	-10.3159
▁kick	-10.3161
Gurmeetramrahim	-10.3173
▁pray	-10.3182
dd	-10.3185
▁sleeping	-10.3194
▁nah	-10.3206
▁Shit	-10.3213
▁Kim	-10.3217
▁greatest	-10.3218
are	-10.322
▁China	-10.3223
use	-10.3229
▁thread	-10.3234
alex	-10.3245
tr	-10.3251
ess	-10.3252
NYC	-10.3255
▁given	-10.3256
▁Omg	-10.3258
▁hahaha	-10.3258
TS	-10.3263
gal	-10.3264
▁End	-10.3266
Or	-10.3267
Twitter	-10.3277
▁Going	-10.3278
Ass	-10.3279
eng	-10.3284
▁DONT	-10.3284
oz	-10.3288
▁busy	-10.329
▁judge	-10.3292
▁National	-10.3294
FA	-10.3295
god	-10.3299
play	-10.3301
▁°	-10.3313
bra	-10.3315
▁shoot	-10.332
Game	-10.3323
▁plans	-10.3329
▁dress	-10.3337
▁singing	-10.3338
▁notice	-10.3349
ag	-10.3356
▁Everything	-10.3357
bad	-10.3359
Com	-10.3359
bae	-10.3367
▁caught	-10.337
▁tweeting	-10.3371
▁students	-10.3373
▁aint	-10.3374
▁film	-10.3374
▁lucky	-10.3376
▁Americans	-10.338
▁rts	-10.338
▁peace	-10.3381
⃣	-10.3381
gh	-10.3387
Beauty	-10.3387
Oh	-10.3407
▁touch	-10.3408
▁Call	-10.3408
▁killing	-10.341
70	-10.3413
ara	-10.3419
▁Lord	-10.3419
▁Next	-10.3419
▁Ha	-10.342
▁scene	-10.3421
49	-10.3422
FOLLOW	-10.3441
▁(:	-10.3445
pop	-10.3446
ET	-10.3448
▁shower	-10.3449
fer	-10.3449
law	-10.3451
▁released	-10.3459
47	-10.3463
⭐	-10.3467
DE	-10.3471
▁version	-10.3474
▁90	-10.3481
82	-10.3481
Vi	-10.3483
▁problems	-10.3489
lock	-10.3491
▁bruh	-10.3496
ette	-10.3501
42	-10.3505
angel	-10.3505
▁themselves	-10.3506
▁simple	-10.3506
▁leaving	-10.3513
▁art	-10.3518
▁count	-10.3528
▁road	-10.3528
▁NEED	-10.3528
▁WIN	-10.3538
▁Congress	-10.3543
▁election	-10.3545
▁walking	-10.3546
▁Dr	-10.3548
▁La	-10.3554
✋	-10.3559
▁choice	-10.3561
▁happening	-10.357
Gu	-10.3575
▁Party	-10.3577
Job	-10.3581
MGWV	-10.3586
Mel	-10.3588
fire	-10.359
michael	-10.3595
iya	-10.36
▁San	-10.3603
▁wonderful	-10.3609
face	-10.3611
set	-10.3611
MSG	-10.3617
guy	-10.3625
lay	-10.3628
▁August	-10.3629
mag	-10.3631
🍕	-10.3633
mel	-10.3633
▁non	-10.3634
▁lovely	-10.3635
▁race	-10.3635
TheReal	-10.364
56	-10.364
Will	-10.3641
May	-10.3641
xoxo	-10.3642
SO	-10.3645
▁issue	-10.3645
ada	-10.3649
san	-10.3654
▁alive	-10.3657
▁fr	-10.3659
▁asleep	-10.3664
ld	-10.3668
tar	-10.3669
▁digital	-10.3672
▁service	-10.368
white	-10.3684
▁NEVER	-10.3685
aka	-10.3686
pal	-10.3696
SH	-10.3698
MP	-10.37
▁across	-10.3711
▁fighting	-10.3717
▁SEE	-10.3719
▁sucks	-10.3722
▁HIS	-10.3727
sun	-10.3743
Ho	-10.3743
paul	-10.375
▁four	-10.375
eeee	-10.3754
▁bless	-10.3755
putting	-10.3757
67	-10.3759
😐	-10.3763
ban	-10.3763
androidgame	-10.3765
kk	-10.3766
GE	-10.3767
▁unfollowers	-10.3771
matt	-10.3772
▁points	-10.3772
▁Haha	-10.3776
Smith	-10.3786
▁Vote	-10.3796
Ya	-10.3799
▁lying	-10.3799
79	-10.3803
▁continue	-10.3806
▁Park	-10.3808
wi	-10.3808
▁OFF	-10.3809
▁STOP	-10.3811
▁snapchat	-10.3814
eezy	-10.3817
▁Am	-10.3818
gan	-10.3819
▁loves	-10.3822
ena	-10.3825
▁thoughts	-10.3827
▁Social	-10.3835
NO	-10.3836
68	-10.3839
bl	-10.3843
▁Democrats	-10.3843
Green	-10.3845
Lady	-10.3845
GOP	-10.3846
84	-10.3856
ward	-10.3856
▁sitting	-10.3875
64	-10.3877
▁hoe	-10.3879
▁hurts	-10.3881
▁Little	-10.3883
▁October	-10.3883
86	-10.3884
This	-10.3899
▁Al	-10.3904
63	-10.3906
▁Brown	-10.3913
▁Nice	-10.3916
Se	-10.3916
▁November	-10.3931
▁Rt	-10.3933
blog	-10.3939
▁series	-10.394
▁career	-10.3944
ob	-10.3945
▁finish	-10.3946
▁Mom	-10.3952
▁shirt	-10.3955
▁Win	-10.3958
▁blue	-10.3959
▁Beyonce	-10.3963
Ha	-10.3968
▁bought	-10.3971
Pa	-10.3972
▁Set	-10.3976
PR	-10.3977
blue	-10.3978
marie	-10.398
▁ITS	-10.399
▁smoke	-10.3991
▁Blue	-10.3997
list	-10.3999
▁weak	-10.4008
▁SHIT	-10.4013
sports	-10.4014
▁Their	-10.4015
36	-10.4017
Her	-10.4017
smith	-10.4022
▁losing	-10.4024
▁Playing	-10.4025
▁dark	-10.4026
anne	-10.4031
tom	-10.4036
▁LOOK	-10.4036
▁LA	-10.4038
▁Wait	-10.4038
🏆	-10.404
▁naked	-10.4043
▁Dis	-10.4044
MS	-10.4044
▁Ever	-10.4045
bre	-10.4048
Mi	-10.4053
rn	-10.4058
mp	-10.4063
chat	-10.4067
▁woke	-10.4072
▁Paul	-10.4073
len	-10.4076
▁hungry	-10.4088
quote	-10.4089
▁Before	-10.409
▁Getting	-10.4093
pt	-10.4101
▁works	-10.4108
▁comment	-10.4112
Taylor	-10.4117
▁teacher	-10.4118
75	-10.4121
▁clothes	-10.413
des	-10.4131
▁able	-10.4133
Ali	-10.4136
▁nap	-10.4137
med	-10.4143
✈	-10.4144
Home	-10.4145
Brown	-10.4146
▁promise	-10.4154
cr	-10.4156
▁Down	-10.4159
▁positive	-10.4166
▁store	-10.4167
sal	-10.4172
styles	-10.4172
▁born	-10.4176
Like	-10.4179
▁Cup	-10.4188
▁showing	-10.4193
ef	-10.4196
😆	-10.4203
heart	-10.4204
woo	-10.4204
💎	-10.4206
▁Think	-10.4215
▁Yo	-10.4219
▁Russian	-10.4219
GO	-10.4229
Scott	-10.423
▁Niggas	-10.4238
Ta	-10.4242
gr	-10.425
david	-10.4269
▁met	-10.4272
❗	-10.4275
▁character	-10.4275
78	-10.4276
▁Welcome	-10.4278
🎈	-10.4285
▁action	-10.4291
▁community	-10.4294
wing	-10.4295
▁Beautiful	-10.4297
mor	-10.4301
Kid	-10.4304
hyun	-10.4306
Fly	-10.4311
▁Same	-10.4321
Back	-10.4325
▁fam	-10.4327
▁afraid	-10.4327
CE	-10.4333
▁pull	-10.4333
▁shooting	-10.4338
▁March	-10.4339
av	-10.4345
ano	-10.4349
TeamFollowBack	-10.4356
▁Tonight	-10.4357
▁HERE	-10.4364
Army	-10.4367
▁dying	-10.4367
▁Drake	-10.4371
▁HER	-10.4381
Ke	-10.439
38	-10.4391
fox	-10.4393
😞	-10.4394
room	-10.4396
ls	-10.44
rock	-10.4401
▁favourite	-10.4404
▁sun	-10.4409
hhh	-10.4416
▁knowing	-10.4422
ati	-10.4423
EL	-10.4427
▁22	-10.4429
bit	-10.4429
▁loving	-10.4432
taylor	-10.4433
▁artist	-10.4435
▁Police	-10.4436
▁Chris	-10.4436
Kim	-10.4437
▁Thursday	-10.4443
▁handle	-10.4444
▁June	-10.4449
▁slow	-10.4453
Etsy	-10.4453
▁\	-10.4454
▁trash	-10.4458
▁Rock	-10.446
▁spent	-10.4464
long	-10.4471
▁completely	-10.4473
▁personal	-10.4475
right	-10.4476
▁space	-10.448
▁Download	-10.448
▁return	-10.4481
Party	-10.4486
SC	-10.449
😪	-10.4495
▁dinner	-10.4498
▁explain	-10.4498
▁Finally	-10.45
▁Any	-10.4501
cher	-10.4506
home	-10.4506
▁political	-10.4508
▁issues	-10.4509
▁Fifth	-10.4509
Ray	-10.4521
▁FBI	-10.4523
▁Gold	-10.4529
Iam	-10.4538
cent	-10.4541
▁deserves	-10.4542
ett	-10.4542
▁TIME	-10.4543
▁per	-10.4563
dia	-10.4566
▁often	-10.4566
▁view	-10.4575
▁mess	-10.4581
BR	-10.4584
hood	-10.4587
hill	-10.4588
▁hang	-10.4591
ev	-10.4593
▁GOT	-10.4596
MI	-10.4596
▁website	-10.4596
St	-10.4598
pat	-10.4599
KE	-10.46
Girls	-10.4604
DA	-10.4604
fl	-10.4605
▁Imagine	-10.4608
▁pizza	-10.461
▁ice	-10.4611
▁bullshit	-10.4612
tz	-10.4615
▁Nobody	-10.4616
▁complete	-10.4621
👅	-10.4623
▁company	-10.4631
Steve	-10.4632
NCT	-10.4642
lover	-10.4644
best	-10.4644
▁color	-10.4645
Only	-10.4651
▁lit	-10.466
▁500	-10.4662
PA	-10.4662
Jordan	-10.4662
lon	-10.4664
OG	-10.467
ell	-10.4672
▁DID	-10.4674
Can	-10.468
act	-10.468
Rob	-10.4687
😝	-10.4696
▁Ya	-10.4697
EN	-10.47
HQ	-10.4702
▁celebrate	-10.4702
▁thinks	-10.4712
LO	-10.4714
▁details	-10.4716
▁Texas	-10.4721
▁totally	-10.4722
▁court	-10.4729
▁DON	-10.4734
GA	-10.4741
Justin	-10.476
▁lmfao	-10.4765
▁Boy	-10.4769
▁award	-10.4774
▁Ma	-10.4786
Ba	-10.4788
▁local	-10.4788
▁moving	-10.4788
▁GOP	-10.4789
▁broken	-10.4791
War	-10.4796
IM	-10.4798
▁protect	-10.4798
▁Ex	-10.4801
daily	-10.4813
mil	-10.4815
girls	-10.482
VE	-10.4831
BBC	-10.4832
▁credit	-10.4832
point	-10.484
og	-10.4843
Comedy	-10.4849
rk	-10.4852
▁stories	-10.4853
▁spot	-10.4862
oc	-10.4866
james	-10.4868
▁Pre	-10.4871
ste	-10.4871
62	-10.4871
board	-10.488
▁Young	-10.4884
jobs	-10.489
rat	-10.4894
▁Must	-10.4901
▁lady	-10.4904
▁bus	-10.4905
eva	-10.4905
Si	-10.4906
▁anyway	-10.4906
BE	-10.4907
▁coffee	-10.4909
PL	-10.4911
GG	-10.4911
❄	-10.4913
girlposts	-10.4913
▁60	-10.4918
▁tears	-10.492
mad	-10.4926
WW	-10.493
▁Been	-10.493
▁tells	-10.4931
▁Open	-10.4933
▁Bitch	-10.4938
▁April	-10.4941
▁speech	-10.4943
▁Price	-10.4951
tweets	-10.4953
▁Harmony	-10.4955
▁weight	-10.4956
▁national	-10.4968
▁wins	-10.4971
sey	-10.4976
sch	-10.4979
Dee	-10.4982
pen	-10.4997
▁block	-10.4998
Cha	-10.4999
▁acting	-10.5
pie	-10.5
kat	-10.5009
▁fit	-10.5009
▁Enter	-10.5011
▁gon	-10.5012
nie	-10.5019
OL	-10.5021
CO	-10.5027
RS	-10.5034
▁quite	-10.504
pl	-10.5041
Mu	-10.5042
Am	-10.5047
▁member	-10.5048
Guy	-10.5048
▁Anyone	-10.5054
giveaway	-10.5054
▁five	-10.5057
yn	-10.5061
▁Bill	-10.5062
▁Long	-10.5066
▁internet	-10.5069
▁crush	-10.5071
ries	-10.5074
TE	-10.5077
▁jealous	-10.5084
London	-10.5085
▁wild	-10.5087
▁#1	-10.5093
▁fell	-10.5095
bell	-10.51
▁double	-10.51
nic	-10.5101
▁Could	-10.5105
▁Di	-10.5105
▁sing	-10.5107
▁study	-10.5109
Sex	-10.5112
om	-10.5114
Too	-10.512
PE	-10.5121
women	-10.5124
▁ha	-10.5129
▁Q	-10.5133
▁smart	-10.5135
━	-10.5143
▁December	-10.5151
EST	-10.5157
Sh	-10.5169
SM	-10.517
AR	-10.5173
▁Its	-10.5179
▁sell	-10.5181
MIN	-10.5193
green	-10.5201
tro	-10.5204
ding	-10.5208
jan	-10.5209
House	-10.521
▁project	-10.5216
Em	-10.5221
WIN	-10.5222
▁incredible	-10.5223
▁stress	-10.5223
weareoneEXO	-10.5227
Boss	-10.5227
▁article	-10.5228
Tech	-10.5229
Post	-10.5235
▁info	-10.5239
care	-10.5244
MY	-10.5247
▁Green	-10.525
Kat	-10.5252
Choice	-10.5257
▁English	-10.526
▁practice	-10.5265
▁Air	-10.5265
▁Sun	-10.5275
ace	-10.5276
Bill	-10.5279
Movie	-10.5283
▁Bad	-10.5284
NI	-10.5287
een	-10.5292
aj	-10.53
Funny	-10.531
onedirection	-10.5313
ology	-10.5316
▁trade	-10.5318
niall	-10.5322
▁interesting	-10.5323
ima	-10.5326
high	-10.5329
46	-10.533
▁situation	-10.534
▁EVER	-10.5346
▁leader	-10.5348
▁finished	-10.5355
ESPN	-10.5356
din	-10.536
▁email	-10.5361
▁married	-10.5366
Bri	-10.5369
▁train	-10.5371
▁Sex	-10.5372
▁War	-10.5381
MAN	-10.5384
▁USA	-10.5385
Hi	-10.5399
moon	-10.5402
ud	-10.5404
wo	-10.5404
▁Rihanna	-10.5407
▁holding	-10.5409
Jones	-10.5414
mas	-10.5422
ator	-10.5424
▁success	-10.5425
iii	-10.5429
▁Tuesday	-10.5429
isa	-10.5436
▁normal	-10.5439
▁camera	-10.5439
▁within	-10.5445
▁brought	-10.5445
37	-10.545
▁Those	-10.5451
👋	-10.5453
▁po	-10.5454
▁Bro	-10.5457
▁ignore	-10.5462
▁Update	-10.5462
▁shop	-10.5467
game	-10.5471
▁opinion	-10.5476
FL	-10.5484
HS	-10.549
En	-10.549
bieber	-10.5495
▁build	-10.5496
nation	-10.5503
▁Week	-10.5506
park	-10.5511
▁Ho	-10.5511
ama	-10.5511
▁exist	-10.5512
now	-10.5512
▁CUTE	-10.5514
AB	-10.5516
Women	-10.5517
▁League	-10.5518
Heart	-10.5519
▁opening	-10.5521
73	-10.5522
cus	-10.5528
got	-10.5537
▁press	-10.554
▁FROM	-10.5547
Hu	-10.5549
Ju	-10.5553
▁Try	-10.5567
▁bag	-10.5568
▁27	-10.5572
▁consider	-10.5573
▁period	-10.5578
▁billion	-10.5578
Men	-10.5579
81	-10.5582
lot	-10.5584
gun	-10.5591
▁blood	-10.5592
▁True	-10.5593
mb	-10.5598
DS	-10.5602
Daniel	-10.5605
65	-10.5611
Media	-10.5613
jon	-10.5614
▁autograph	-10.5619
▁September	-10.5624
▁score	-10.563
▁Nigga	-10.5633
zin	-10.5637
▁snow	-10.5638
▁chicken	-10.564
▁Bo	-10.5642
cl	-10.5648
chu	-10.5651
ious	-10.5651
▁Play	-10.5653
mom	-10.5657
row	-10.5658
talk	-10.5658
74	-10.5666
NC	-10.5666
▁husband	-10.5667
bro	-10.5676
▁daily	-10.5678
eli	-10.5679
▁actual	-10.5679
😛	-10.5682
Tumblr	-10.5684
▁waste	-10.5685
DO	-10.5691
Ken	-10.5694
54	-10.5695
▁Business	-10.5699
Updates	-10.5699
▁Head	-10.5699
▁decided	-10.57
🤗	-10.5702
ona	-10.5702
▁Enjoy	-10.5703
MB	-10.5704
▁doubt	-10.5713
rie	-10.5716
TW	-10.5719
▁accept	-10.572
fly	-10.5724
▁views	-10.5724
▁known	-10.5725
DAY	-10.5732
Boo	-10.5737
dis	-10.5738
bear	-10.5739
▁upset	-10.5742
▁reality	-10.5746
hoe	-10.5749
FoxNews	-10.5751
Bar	-10.5769
▁NEWS	-10.577
▁band	-10.577
▁winner	-10.5772
💫	-10.5777
▁basically	-10.5781
Pri	-10.5783
jk	-10.5788
83	-10.5789
bal	-10.5791
brown	-10.5791
▁blessed	-10.5791
pet	-10.5794
Ad	-10.5795
▁collected	-10.5795
Blog	-10.58
ica	-10.5805
DI	-10.5807
▁conversation	-10.581
bas	-10.5811
eu	-10.5819
luv	-10.582
▁surprise	-10.582
FifthHarmony	-10.5821
sad	-10.5823
photography	-10.5825
▁regret	-10.5826
ala	-10.583
far	-10.5831
KING	-10.5833
▁allowed	-10.5835
▁David	-10.5835
▁random	-10.5838
Sen	-10.5838
Words	-10.5844
▁Amazing	-10.5852
▁Idk	-10.5853
hy	-10.5855
🎁	-10.5859
▁Post	-10.5863
Gi	-10.5865
ERS	-10.5867
ika	-10.5873
▁especially	-10.5882
ual	-10.5895
▁makeup	-10.59
▁dating	-10.5901
sp	-10.5902
▁travel	-10.5906
▁DE	-10.5909
rob	-10.5909
▁1000	-10.5909
▁Florida	-10.5912
▁Way	-10.5915
▁GAIN	-10.5915
hai	-10.5915
fr	-10.5916
Adam	-10.5918
Mor	-10.5918
▁hearing	-10.5929
▁focus	-10.5931
▁Say	-10.5938
Ty	-10.5942
▁bar	-10.5949
▁gorgeous	-10.5951
🌴	-10.5958
▁HIM	-10.5964
this	-10.5965
Sarah	-10.5966
▁BITCH	-10.5971
▁REALLY	-10.5972
▁create	-10.5972
▁present	-10.5973
▁thru	-10.5974
▁LMAO	-10.5977
43	-10.5978
▁honest	-10.5978
MC	-10.5984
UP	-10.5985
OT	-10.5986
▁driving	-10.5989
tee	-10.599
MLB	-10.5999
hey	-10.5999
CC	-10.6
AH	-10.6006
52	-10.6006
▁role	-10.6012
▁keeps	-10.6013
VeranoMTV	-10.6013
▁signed	-10.6017
▁draw	-10.6023
▁Once	-10.6027
Nashgrier	-10.6029
▁lunch	-10.603
ria	-10.603
▁Guys	-10.6031
High	-10.6033
▁bet	-10.6039
▁coins	-10.6039
▁Song	-10.6043
▁learned	-10.6044
lit	-10.6055
Tim	-10.6056
Va	-10.6058
bat	-10.6062
put	-10.6065
Josh	-10.6069
▁California	-10.607
kr	-10.607
▁Power	-10.6071
▁wrote	-10.6074
▁lets	-10.6076
VA	-10.6081
np	-10.6086
▁British	-10.6087
BA	-10.6101
▁secret	-10.6107
cur	-10.6111
Truth	-10.6112
char	-10.6117
kan	-10.6117
Jobs	-10.6117
▁fix	-10.6122
ning	-10.6124
Pop	-10.6125
tay	-10.6129
▁stuck	-10.6139
rea	-10.6145
▁Care	-10.6145
cas	-10.6147
jun	-10.6147
▁reaction	-10.6149
Play	-10.6149
▁ft	-10.6153
max	-10.6155
Cal	-10.6163
Su	-10.6165
▁26	-10.6167
▁murder	-10.6182
Health	-10.6188
▁title	-10.6198
Got	-10.6205
║	-10.6208
▁Learn	-10.621
josh	-10.621
ela	-10.6213
SU	-10.6214
Power	-10.6215
made	-10.6215
▁paper	-10.6217
kh	-10.6218
FM	-10.622
▁currently	-10.6222
RI	-10.6223
▁shoes	-10.6238
▁hello	-10.624
▁warm	-10.6244
▁Photos	-10.6244
ENT	-10.6245
▁Watching	-10.6246
▁didnt	-10.6246
ShawnMendes	-10.6247
▁major	-10.6252
BI	-10.6257
▁taste	-10.6258
tim	-10.6259
▁dogs	-10.626
soul	-10.6262
▁personalized	-10.6268
▁crowd	-10.627
▁reach	-10.6273
Retweet	-10.6273
jr	-10.6276
▁REAL	-10.6276
▁Sachin	-10.629
BC	-10.6295
Money	-10.6295
▁stopped	-10.6299
▁building	-10.6299
▁risk	-10.6306
▁Cause	-10.631
Fuck	-10.6312
▁Family	-10.6314
▁THANK	-10.6317
ini	-10.6323
Mind	-10.6331
▁Everybody	-10.6337
▁whoever	-10.6344
hun	-10.6348
nes	-10.6354
Ann	-10.6356
nowplaying	-10.636
amp	-10.6362
▁alright	-10.6364
FB	-10.6365
TER	-10.6366
ut	-10.6367
ado	-10.6371
▁Him	-10.6375
▁LIFE	-10.6379
Kar	-10.6382
tain	-10.6382
run	-10.6382
LI	-10.6383
▁hasn	-10.6384
tel	-10.6385
mind	-10.6388
shit	-10.6388
53	-10.639
Mal	-10.6398
Bro	-10.6399
▁beach	-10.64
▁Wednesday	-10.6403
▁28	-10.6407
▁gym	-10.6407
▁honor	-10.641
▁loud	-10.6414
bel	-10.6417
▁key	-10.6417
media	-10.6422
DY	-10.6423
▁floor	-10.6424
CK	-10.6424
Dream	-10.6426
sie	-10.6432
▁dropped	-10.6438
CT	-10.6442
▁blame	-10.6443
░	-10.6446
▁Season	-10.6446
▁rock	-10.6449
Posts	-10.6449
joe	-10.645
▁towards	-10.645
▁officially	-10.645
▁Na	-10.6453
▁site	-10.6454
Sal	-10.6456
AT	-10.6459
ito	-10.6459
ris	-10.646
▁Fire	-10.6461
💰	-10.6463
▁Old	-10.6475
▁debut	-10.6476
▁Tendulkar	-10.6479
▁cutest	-10.6481
🗣	-10.6482
Bee	-10.6485
😇	-10.6487
▁TODAY	-10.6488
▁student	-10.6489
gs	-10.6491
▁TL	-10.6493
▁cream	-10.6494
▁attitude	-10.6499
▁mins	-10.6499
▁wall	-10.6501
▁folks	-10.6505
lar	-10.6509
KO	-10.651
▁bill	-10.651
bag	-10.651
ALL	-10.6513
▁Light	-10.6513
🍃	-10.6516
avi	-10.6519
Rap	-10.6523
▁style	-10.6524
▁TOO	-10.6525
radio	-10.6533
lou	-10.6538
Care	-10.6543
▁IG	-10.6544
ans	-10.6547
SP	-10.655
▁boring	-10.6554
Things	-10.6554
hard	-10.6555
Ie	-10.6555
59	-10.6556
Jake	-10.6556
▁Beyoncé	-10.6557
▁MAKE	-10.656
San	-10.6564
qu	-10.6565
▁total	-10.6567
▁earth	-10.6572
Bieber	-10.6577
▁illegal	-10.6577
▁etc	-10.6579
ora	-10.658
▁til	-10.6583
▁response	-10.6592
▁security	-10.6602
some	-10.6605
▁mental	-10.6608
▁decision	-10.6609
▁rich	-10.6611
▁Book	-10.6613
▁Sign	-10.6616
too	-10.6617
▁George	-10.6618
▁shopping	-10.6621
▁Better	-10.6622
National	-10.6625
Sun	-10.6626
▁cost	-10.6631
shop	-10.6634
▁FAST	-10.6638
oooo	-10.664
lies	-10.664
▁sold	-10.6644
LOVE	-10.6649
know	-10.665
little	-10.665
▁hug	-10.6651
Sweet	-10.6652
▁bio	-10.6652
▁private	-10.6653
west	-10.6657
000	-10.6658
▁screen	-10.6667
▁emotional	-10.6669
▁OR	-10.6672
▁CANT	-10.6675
▁Money	-10.668
▁brand	-10.6684
▁Gotta	-10.6687
▁Daily	-10.6687
Jr	-10.6694
Ask	-10.6695
nan	-10.6697
gate	-10.6704
aye	-10.671
NBC	-10.6711
▁UN	-10.6713
▁ABOUT	-10.6715
Pat	-10.6715
▁dear	-10.6715
▁Mo	-10.6716
▁BIG	-10.6717
Fe	-10.6719
CI	-10.672
Online	-10.6722
sexy	-10.6733
cra	-10.6734
EX	-10.6735
Fire	-10.674
▁RIGHT	-10.6747
sel	-10.6748
▁flight	-10.6749
Andrew	-10.6749
ec	-10.6751
ue	-10.6752
gram	-10.6753
ston	-10.6755
JB	-10.6758
▁talks	-10.6764
sarah	-10.6775
American	-10.6778
pic	-10.678
▁beauty	-10.6785
phil	-10.6791
ven	-10.6792
▁Halloween	-10.6794
▁bye	-10.6795
▁anybody	-10.6796
JA	-10.68
nor	-10.6801
jen	-10.6801
MD	-10.6802
▁mum	-10.6802
▁worked	-10.6807
▁unless	-10.681
sin	-10.6819
51	-10.6823
verse	-10.6831
▁Ima	-10.6832
Family	-10.6832
Marie	-10.6835
▁main	-10.6837
▁Niall	-10.6838
Bible	-10.6839
▁Court	-10.6839
▁ends	-10.6839
▁dat	-10.684
BO	-10.684
ach	-10.6841
What	-10.6845
▁chat	-10.6847
▁Years	-10.6849
▁Tomorrow	-10.6852
from	-10.6853
▁Seconds	-10.6855
▁effort	-10.6858
GI	-10.6859
Bon	-10.6859
super	-10.686
AG	-10.686
▁hits	-10.6863
uff	-10.687
▁offer	-10.6871
Hub	-10.6877
▁Nicki	-10.6878
▁figure	-10.6879
▁Woman	-10.6879
lic	-10.6881
▁drama	-10.6883
WI	-10.6886
ND	-10.6886
▁interested	-10.6889
ami	-10.689
🙋	-10.689
▁size	-10.6891
school	-10.6893
▁Wanna	-10.6893
Te	-10.6894
▁fair	-10.6897
▁stream	-10.6897
Who	-10.6897
boi	-10.6904
▁BIRTHDAY	-10.6905
Rich	-10.6911
▁80	-10.6913
who	-10.6916
▁ways	-10.6923
wolf	-10.6924
▁market	-10.6924
▁advice	-10.6931
Mad	-10.6935
▁age	-10.6935
ero	-10.6936
cap	-10.6941
▁Tweet	-10.6942
sweet	-10.6944
▁none	-10.695
kai	-10.6952
pur	-10.6957
▁Muslim	-10.6958
eb	-10.6962
▁Water	-10.6967
⚽	-10.6971
▁29	-10.6974
▁Korea	-10.6977
ale	-10.6978
Say	-10.6984
RETWEETS	-10.6985
Kris	-10.6985
MAGA	-10.6987
▁jump	-10.6987
▁trending	-10.6992
Awards	-10.6993
▁States	-10.6993
▁statement	-10.6996
bitch	-10.6997
▁While	-10.6997
away	-10.6997
▁named	-10.7002
berg	-10.7002
hand	-10.7005
name	-10.7006
▁xx	-10.7008
▁battle	-10.7009
▁earlier	-10.7016
〓	-10.7018
▁Britney	-10.7023
▁former	-10.7026
water	-10.7027
▁Media	-10.703
Dave	-10.7031
▁Looks	-10.7036
NG	-10.704
🍀	-10.7045
HD	-10.7047
▁content	-10.705
say	-10.7051
tie	-10.7052
cute	-10.7056
▁pair	-10.7058
usa	-10.7059
Fox	-10.7062
▁Allah	-10.7077
SB	-10.7077
wu	-10.708
▁babies	-10.7082
▁Found	-10.7095
Ch	-10.7096
▁powerful	-10.7097
▁70	-10.71
▁certain	-10.7105
rick	-10.7106
▁Republicans	-10.7107
▁memories	-10.7107
nam	-10.7108
▁Put	-10.711
▁nude	-10.7111
▁pop	-10.7114
Ex	-10.7115
food	-10.7115
▁Hate	-10.7116
mic	-10.7119
ox	-10.7127
▁amount	-10.7128
XXX	-10.7131
App	-10.7133
Andy	-10.7133
ip	-10.7136
joy	-10.7139
BTSARMY	-10.7145
▁passed	-10.7146
▁sub	-10.7153
marketing	-10.7156
Pu	-10.7156
▁sharing	-10.7158
▁Wish	-10.716
exo	-10.716
▁tough	-10.7161
▁falling	-10.7167
money	-10.717
ible	-10.7178
▁Dead	-10.7179
▁gas	-10.718
As	-10.718
▁England	-10.719
🔫	-10.7194
Iy	-10.7197
▁Se	-10.7197
business	-10.7198
GU	-10.7199
Sport	-10.72
▁{	-10.72
only	-10.7207
RY	-10.7207
▁Mark	-10.721
BS	-10.721
▁lies	-10.7217
America	-10.7222
▁GUYS	-10.723
EU	-10.7232
🤘	-10.7238
sss	-10.7239
ches	-10.7241
41	-10.7245
▁wh	-10.7247
▁homework	-10.7249
Du	-10.7251
ese	-10.7251
From	-10.7253
61	-10.7254
yr	-10.7254
▁except	-10.7259
▁everywhere	-10.7269
CR	-10.7271
▁THEM	-10.7278
▁}	-10.7283
71	-10.7286
▁reminder	-10.7287
▁spread	-10.7292
▁price	-10.7292
lauren	-10.7293
NS	-10.7296
Za	-10.7297
jimin	-10.7297
ung	-10.7311
nee	-10.7315
▁saved	-10.7317
▁Meet	-10.7318
OP	-10.7322
▁trouble	-10.7322
Stop	-10.7323
▁ladies	-10.7326
▁push	-10.7334
yeon	-10.7335
fall	-10.7343
Thomas	-10.7346
▁#5	-10.735
Sp	-10.7352
▁Canada	-10.7355
▁challenge	-10.7356
▁Since	-10.7358
▁boss	-10.7361
Food	-10.7362
sea	-10.7363
bird	-10.7367
😃	-10.7369
link	-10.7369
py	-10.7372
▁Share	-10.7373
▁current	-10.7376
▁bank	-10.7377
😀	-10.7379
▁jail	-10.7385
▁Lil	-10.7389
LFC	-10.7392
57	-10.7393
▁drinking	-10.7394
Club	-10.7397
▁direction	-10.7398
rag	-10.7398
▁speaking	-10.7399
▁Ariana	-10.74
▁ima	-10.7403
▁review	-10.7405
▁decide	-10.7405
▁bigger	-10.7408
fit	-10.741
©	-10.741
▁including	-10.7412
▁generation	-10.7421
ura	-10.7424
▁created	-10.7425
▁pack	-10.7429
Jim	-10.7433
RM	-10.7435
▁based	-10.7436
▁ground	-10.7436
Pretty	-10.7439
▁selfie	-10.744
scott	-10.7441
Chan	-10.7442
▁awkward	-10.7443
▁usually	-10.7445
▁mate	-10.7447
ix	-10.7448
▁EU	-10.7454
🙅	-10.7455
▁confused	-10.7456
▁Indian	-10.7456
▁wedding	-10.7459
▁Having	-10.7466
pink	-10.7467
😬	-10.7467
▁CO	-10.7469
Hey	-10.7472
Jon	-10.7474
Friday	-10.7477
Mrs	-10.7478
Nigga	-10.7482
Sky	-10.7484
▁whether	-10.7489
lady	-10.7491
instagram	-10.7493
gold	-10.7495
nk	-10.7497
▁stan	-10.7498
▁Japan	-10.7498
▁coach	-10.7499
nat	-10.7501
fish	-10.7501
▁poll	-10.7501
lynn	-10.7503
lab	-10.7506
▁daddy	-10.7507
TX	-10.7511
Off	-10.7514
ging	-10.7518
▁angry	-10.7518
▁grade	-10.7529
IC	-10.7533
▁writing	-10.7534
▁surprised	-10.7534
OS	-10.7534
▁mention	-10.7535
Ye	-10.7535
▁calm	-10.7541
▁comments	-10.7542
▁blog	-10.7543
AMAs	-10.7544
JustinBieber	-10.755
▁votes	-10.755
VideoMTV	-10.7557
▁Disney	-10.7558
rc	-10.7562
▁Under	-10.7563
▁Something	-10.7566
gra	-10.7567
▁Story	-10.757
AF	-10.7571
▁Guess	-10.7574
cast	-10.7576
▁lots	-10.7578
▁data	-10.7581
▁feet	-10.7583
Chat	-10.7583
Dope	-10.7584
▁tea	-10.7587
ION	-10.7588
princess	-10.7593
SF	-10.7595
TT	-10.7598
▁contact	-10.76
kee	-10.7603
▁letting	-10.7605
Tee	-10.7608
TI	-10.7608
Min	-10.7611
▁worried	-10.7613
▁Hard	-10.7613
▁healthy	-10.7614
ira	-10.7614
▁growing	-10.7617
won	-10.7619
▁Ready	-10.7619
sure	-10.762
▁league	-10.7622
▁OK	-10.7623
▁reasons	-10.7626
bon	-10.7628
▁twice	-10.7629
SI	-10.7629
Cool	-10.7634
izz	-10.7639
gy	-10.7642
▁outta	-10.7642
▁Times	-10.7648
😷	-10.7648
▁sexual	-10.7649
▁Mr	-10.7655
▁likely	-10.7659
what	-10.7659
▁soft	-10.766
tur	-10.7661
Our	-10.7666
▁CA	-10.767
Dat	-10.7672
▁process	-10.7677
mate	-10.7677
BBMAs	-10.7679
▁delete	-10.7689
Po	-10.769
EM	-10.7694
itz	-10.7709
▁male	-10.7719
cre	-10.772
▁reveal	-10.7723
☆	-10.7729
▁Chelsea	-10.7731
▁playlist	-10.7736
Dont	-10.7736
▁beyond	-10.7743
▁hospital	-10.7744
lol	-10.7745
hole	-10.7746
hen	-10.7748
MM	-10.7751
▁roll	-10.7755
Kyle	-10.7756
raj	-10.7759
Times	-10.776
body	-10.776
▁Chinese	-10.7762
ARMY	-10.7763
yung	-10.7763
pu	-10.7764
CHI	-10.7766
Dre	-10.7766
▁Ain	-10.7767
▁French	-10.7768
ory	-10.7768
▁stars	-10.7769
▁apart	-10.777
é	-10.777
▁loss	-10.7773
Amy	-10.7774
pre	-10.7776
▁older	-10.7778
cool	-10.7778
▁Dec	-10.7781
▁Album	-10.7783
ea	-10.7796
▁copy	-10.7796
🌺	-10.7802
nah	-10.7805
▁kept	-10.7809
💢	-10.781
uu	-10.7812
▁ticket	-10.7812
▁Swift	-10.7819
travel	-10.7822
Law	-10.7823
Global	-10.7824
▁arrested	-10.7825
VI	-10.7826
stan	-10.783
Op	-10.783
style	-10.7831
ium	-10.7838
▁third	-10.7842
Us	-10.7842
▁Fav	-10.7845
bor	-10.7845
una	-10.7853
dle	-10.7853
▁cares	-10.7855
▁King	-10.7858
CU	-10.786
👈	-10.7861
ros	-10.7863
Ball	-10.7867
▁January	-10.7868
▁turns	-10.7868
▁evening	-10.787
Wolf	-10.7872
Jacob	-10.7876
▁legs	-10.7877
▁Mother	-10.7878
▁struggle	-10.7879
ugh	-10.7882
Fla	-10.7883
case	-10.7895
Amazon	-10.7897
str	-10.7898
▁Street	-10.7898
cut	-10.7905
▁receive	-10.7906
Forever	-10.7909
BTSBBMAs	-10.791
▁snap	-10.7913
deep	-10.7914
═	-10.7915
mari	-10.7916
▁huh	-10.7917
lisa	-10.7917
Hair	-10.7922
▁Friends	-10.7924
▁nation	-10.7925
Watch	-10.7925
dad	-10.7926
Bear	-10.7937
▁Special	-10.7937
▁Bar	-10.7942
IE	-10.7942
PD	-10.7943
dale	-10.7944
▁books	-10.7948
ask	-10.7949
rain	-10.7951
▁Mar	-10.7958
▁150	-10.796
▁fandom	-10.7962
▁scary	-10.7962
▁quit	-10.7969
▁Senate	-10.7969
Har	-10.7969
▁respond	-10.7971
▁language	-10.7978
Fans	-10.7979
SoundCloud	-10.7982
FO	-10.7983
KS	-10.7985
ml	-10.7988
SportsCenter	-10.7989
▁adult	-10.7992
ists	-10.7992
hall	-10.7995
▁Heart	-10.8001
▁cancer	-10.8002
Shi	-10.8003
▁manager	-10.8007
dream	-10.8009
▁Many	-10.8012
▁Chicago	-10.8012
sand	-10.8013
Net	-10.8015
self	-10.8016
▁def	-10.8017
▁helping	-10.8018
grace	-10.8022
▁difficult	-10.8022
▁Netflix	-10.8023
▁hide	-10.8024
▁Date	-10.8024
dal	-10.8027
▁Amazon	-10.8036
Dj	-10.8039
▁area	-10.8041
▁rules	-10.8043
fashion	-10.8045
rice	-10.8045
▁Wall	-10.8049
▁shame	-10.8051
Drake	-10.8052
Th	-10.8061
anti	-10.8061
▁prove	-10.8064
▁smell	-10.8065
berry	-10.8066
ct	-10.8068
cum	-10.8076
ple	-10.8077
rad	-10.8077
PushAwardsLizQue	-10.808
tyler	-10.8087
uck	-10.8088
Khan	-10.8088
▁official	-10.8094
iff	-10.8099
▁six	-10.8107
▁Spears	-10.8108
PC	-10.811
▁Mueller	-10.8111
▁Perfect	-10.8115
ww	-10.8115
@	-10.8115
▁African	-10.8116
▁pm	-10.8118
Kai	-10.8119
ai	-10.812
▁Visit	-10.8123
▁Manchester	-10.8127
▁adorable	-10.813
▁College	-10.813
ole	-10.814
▁allow	-10.8142
▁cousin	-10.8142
fla	-10.8142
▁texting	-10.8147
▁Feel	-10.8148
rod	-10.8148
Week	-10.8149
tbh	-10.815
▁Nah	-10.8152
sk	-10.8157
▁mama	-10.816
RA	-10.816
▁ban	-10.8163
hack	-10.8163
mat	-10.8165
Jeff	-10.8167
LittleMix	-10.8167
FT	-10.8169
PI	-10.817
Gold	-10.8174
ila	-10.8179
▁hilarious	-10.818
▁imma	-10.818
▁results	-10.8185
▁COME	-10.8186
▁pregnant	-10.8187
Dog	-10.8187
ison	-10.8187
▁town	-10.8189
rin	-10.8189
Kevin	-10.8191
kiss	-10.8191
▁bunch	-10.8193
Nicole	-10.82
▁35	-10.8201
▁terrible	-10.8205
cing	-10.8206
▁training	-10.8207
▁weed	-10.821
read	-10.8212
mus	-10.8214
▁standing	-10.8218
Per	-10.8219
RC	-10.822
ov	-10.8221
wick	-10.8222
▁angel	-10.8223
Niall	-10.8227
nar	-10.8227
Max	-10.8228
▁force	-10.8228
ink	-10.823
photo	-10.8238
▁box	-10.8238
ryan	-10.8239
bus	-10.8239
NT	-10.8245
Princess	-10.8246
OH	-10.8249
▁chocolate	-10.8253
▁Republican	-10.8254
▁ugh	-10.8255
NASCAR	-10.8258
▁lay	-10.8264
vy	-10.8268
▁senior	-10.8273
beat	-10.8274
▁En	-10.8278
ear	-10.8278
pretty	-10.8279
▁Mind	-10.8279
SON	-10.8281
▁tight	-10.8281
PT	-10.8282
▁PEOPLE	-10.8285
▁beginning	-10.8285
TM	-10.8287
zayn	-10.8287
hope	-10.8288
Jam	-10.8295
▁street	-10.8295
▁Miss	-10.8297
ions	-10.83
UM	-10.8302
▁Kanye	-10.8305
▁pissed	-10.8309
▁AN	-10.8309
Fun	-10.8311
abi	-10.8313
▁lately	-10.8314
Bitch	-10.8326
▁military	-10.8332
RP	-10.8332
Summer	-10.8332
▁STILL	-10.8332
▁Johnson	-10.8333
▁breakfast	-10.8335
▁goodnight	-10.8336
AU	-10.8337
ware	-10.8338
justice	-10.8341
HR	-10.8342
DR	-10.8343
CM	-10.8345
▁mass	-10.8346
TR	-10.8348
Politics	-10.8349
▁LET	-10.8351
hee	-10.8354
🌻	-10.8362
Lisa	-10.8363
▁thankful	-10.8363
▁fool	-10.8363
▁debate	-10.8364
Phil	-10.8364
press	-10.8368
Char	-10.8369
State	-10.8369
quotes	-10.8372
▁paying	-10.8375
mann	-10.8379
▁somewhere	-10.8381
Travel	-10.8381
▁Online	-10.8383
▁BABY	-10.8384
▁follower	-10.8385
▁loyal	-10.839
ens	-10.839
drew	-10.839
TeenChoice	-10.8391
hol	-10.8392
▁tag	-10.8396
▁WTF	-10.8397
Mom	-10.8397
Fin	-10.8397
stop	-10.8398
▁squad	-10.8404
▁border	-10.8404
CB	-10.8408
ser	-10.8415
▁Start	-10.8416
▁held	-10.842
Van	-10.8422
Sean	-10.8425
▁fresh	-10.8426
rah	-10.8428
Camila	-10.8429
▁realized	-10.843
cia	-10.8431
justin	-10.8434
▁Pretty	-10.8437
▁successful	-10.8443
louis	-10.8454
wer	-10.8458
ack	-10.8458
Maria	-10.846
pri	-10.846
▁dirty	-10.8462
▁information	-10.8463
Danny	-10.8465
ree	-10.8469
▁claim	-10.8473
bla	-10.8473
AK	-10.8475
ily	-10.8475
▁holiday	-10.8477
nicole	-10.8479
200	-10.8479
▁App	-10.8482
babe	-10.8492
▁fo	-10.8495
bun	-10.8496
Martin	-10.8497
▁Africa	-10.8504
▁TWEET	-10.8506
late	-10.8508
▁mistake	-10.8512
lia	-10.8514
craft	-10.8516
Lauren	-10.8517
▁reported	-10.8522
▁Goodnight	-10.8522
▁talent	-10.8524
▁attractive	-10.8525
Ashley	-10.8527
▁dancing	-10.8529
Lord	-10.8531
bay	-10.8533
Col	-10.8534
▁quality	-10.8544
▁Seriously	-10.8545
▁easily	-10.8547
Old	-10.8551
▁Review	-10.8555
▁queen	-10.8567
cloud	-10.8569
TC	-10.857
▁legal	-10.8571
▁Washington	-10.8571
MF	-10.8575
▁supporting	-10.8576
▁Bid	-10.8577
▁perform	-10.8579
▁Ask	-10.8581
Original	-10.8581
▁violence	-10.859
eric	-10.8593
▁Jackson	-10.8596
daniel	-10.8597
Ver	-10.8601
Tu	-10.8604
aga	-10.8604
💍	-10.8605
cs	-10.8608
power	-10.8609
Sexy	-10.8613
▁East	-10.8621
SG	-10.8622
▁raise	-10.8625
AND	-10.8626
tour	-10.8627
Carter	-10.8629
▁green	-10.8632
▁increase	-10.8634
wear	-10.8636
🎂	-10.8639
▁Art	-10.8639
▁buying	-10.8639
Prince	-10.8641
roll	-10.8642
Ban	-10.8648
istic	-10.8652
▁teach	-10.8653
▁bomb	-10.8654
▁changes	-10.8655
club	-10.8656
▁Awards	-10.8657
SL	-10.866
lah	-10.8661
CS	-10.8669
tea	-10.8675
Lewis	-10.8676
▁excuse	-10.8677
▁abuse	-10.8679
IG	-10.8681
jones	-10.8684
Social	-10.8685
▁Australia	-10.8685
▁cup	-10.8685
▁fault	-10.8687
AA	-10.8687
Steven	-10.8687
▁sunshine	-10.8689
channel	-10.8695
burn	-10.8696
▁pants	-10.8707
Pi	-10.871
rl	-10.8711
▁awake	-10.8713
leigh	-10.8714
fb	-10.8718
wh	-10.8723
▁announced	-10.8726
ddlovato	-10.8728
bob	-10.873
words	-10.8732
thereal	-10.8733
🐶	-10.8733
_1	-10.8734
▁Made	-10.8735
Moment	-10.8744
elli	-10.8745
Kate	-10.8749
happy	-10.8749
▁teams	-10.875
ax	-10.8751
▁fly	-10.8754
Network	-10.8754
MON	-10.8754
bound	-10.8757
Fight	-10.8763
lb	-10.8766
▁learning	-10.8767
hay	-10.8769
🎊	-10.8772
ving	-10.878
HA	-10.878
aI	-10.8781
▁sis	-10.8781
🏀	-10.8781
Je	-10.8783
▁investigation	-10.8785
▁Fox	-10.8794
▁Report	-10.8795
Tay	-10.8795
ug	-10.8798
▁original	-10.8798
dot	-10.8802
ATL	-10.8807
Sincerely	-10.881
▁cast	-10.881
▁position	-10.8813
True	-10.8813
beauty	-10.8817
sc	-10.8818
ock	-10.8818
▁nearly	-10.8818
▁CRYING	-10.8823
Park	-10.8826
las	-10.883
Song	-10.8831
▁Min	-10.8831
Allen	-10.8837
▁cheat	-10.8837
▁access	-10.8838
▁Talk	-10.8838
Save	-10.884
ua	-10.884
▁Liverpool	-10.8841
Jane	-10.8845
Skin	-10.8846
AZ	-10.8847
ations	-10.8852
▁Tour	-10.8854
Gang	-10.8856
ipad	-10.8858
mainedcm	-10.8858
💨	-10.8858
pon	-10.8858
nia	-10.8859
ae	-10.886
▁cake	-10.8863
▁Other	-10.8868
vision	-10.887
yan	-10.8874
▁quiet	-10.8874
FOLLOWTRICK	-10.8875
▁failed	-10.8876
KA	-10.8876
▁180	-10.8877
▁moments	-10.8878
Great	-10.8884
Peter	-10.8885
▁HELP	-10.8888
PO	-10.8888
Val	-10.8891
▁search	-10.8895
Wilson	-10.8898
tal	-10.8902
🇬	-10.8902
▁begin	-10.8903
▁hotel	-10.8903
org	-10.8904
bang	-10.8904
Shawn	-10.8904
online	-10.8905
▁church	-10.8907
lor	-10.8911
Nat	-10.8913
▁attempt	-10.8913
▁Holy	-10.8913
yyyy	-10.8918
▁channel	-10.8921
▁Cr	-10.8923
Arm	-10.8925
Pink	-10.893
Bot	-10.893
kha	-10.8931
Raw	-10.8933
▁download	-10.8933
eye	-10.8934
SW	-10.8934
ahh	-10.8934
vis	-10.8936
▁famous	-10.8936
▁RIP	-10.8942
form	-10.8944
bur	-10.8944
gue	-10.8946
▁bottom	-10.8948
lang	-10.8949
zer	-10.895
▁wont	-10.895
ities	-10.8954
▁ruin	-10.8954
▁Del	-10.8959
ged	-10.8961
🥺	-10.8961
▁Mexico	-10.8961
500	-10.8966
hoo	-10.8966
▁sending	-10.8966
vid	-10.8967
▁BY	-10.8968
Leo	-10.8971
▁design	-10.8974
▁tweeted	-10.8975
illa	-10.8976
▁Hell	-10.8982
▁Group	-10.8987
▁opportunity	-10.8988
ILL	-10.8993
▁culture	-10.8995
▁USD	-10.8995
▁education	-10.8997
▁announce	-10.8998
▁selling	-10.9001
Brian	-10.9007
▁whenever	-10.9009
▁simply	-10.901
People	-10.9012
▁trailer	-10.9016
loves	-10.9017
GH	-10.9023
emi	-10.9024
uni	-10.9024
😚	-10.9025
▁image	-10.9031
ical	-10.9032
Way	-10.9033
pers	-10.9034
trip	-10.9037
▁Mix	-10.9038
Cu	-10.904
▁comeback	-10.9042
▁clearly	-10.9042
andy	-10.9042
▁idc	-10.9045
Sir	-10.9048
jae	-10.9049
party	-10.905
Coach	-10.9051
Giveaway	-10.9052
▁Pop	-10.9053
facts	-10.9054
Luv	-10.9056
Little	-10.9059
방탄소년단	-10.906
▁evil	-10.9061
Guys	-10.9064
ned	-10.9068
▁relationships	-10.907
Tony	-10.9071
▁clip	-10.9071
▁harder	-10.9074
▁Arsenal	-10.9083
wild	-10.9088
izing	-10.9091
▁pure	-10.9091
▁PLS	-10.9094
ipadgam	-10.9094
▁became	-10.9098
▁families	-10.91
Dev	-10.9104
▁bringing	-10.9105
▁View	-10.9105
ache	-10.9107
see	-10.9113
▁letter	-10.9113
♪	-10.9114
SJ	-10.9115
▁pretend	-10.9115
2019	-10.9118
view	-10.912
▁WORLD	-10.9121
420	-10.9123
TIME	-10.9126
Eric	-10.9129
▁table	-10.9132
vic	-10.914
ula	-10.914
▁correct	-10.9144
AJ	-10.9147
▁basketball	-10.9151
Comm	-10.9151
involved	-10.9152
▁spending	-10.9156
▁Snapchat	-10.9159
sus	-10.9168
300	-10.917
ib	-10.9173
iel	-10.9174
▁foot	-10.9174
▁OUR	-10.9175
football	-10.9176
pra	-10.9178
IVE	-10.9181
▁prison	-10.9183
Kelly	-10.9192
▁@___	-10.9194
▁Paris	-10.9201
JE	-10.9201
ASH	-10.9202
hat	-10.9202
▁plus	-10.9205
▁shall	-10.9208
▁above	-10.921
CP	-10.9211
health	-10.9212
▁lack	-10.9217
rant	-10.922
▁ended	-10.922
scar	-10.922
▁lazy	-10.9225
▁Bruh	-10.9225
Sch	-10.9229
▁staff	-10.923
pp	-10.9232
🎅	-10.9235
yah	-10.924
eat	-10.924
emily	-10.9241
fra	-10.9241
▁MAN	-10.9246
adam	-10.9247
ele	-10.925
▁Favorite	-10.9251
▁ELSE	-10.9253
OC	-10.9254
Country	-10.9257
kill	-10.926
jj	-10.9261
▁recent	-10.9262
Report	-10.9267
▁Case	-10.9268
VO	-10.927
▁acc	-10.9271
ux	-10.9271
Bae	-10.9271
2013	-10.9271
▁mis	-10.9272
▁disgusting	-10.9276
▁jungkook	-10.9276
Austin	-10.9277
Larry	-10.9278
▁ily	-10.9278
word	-10.9281
mary	-10.9281
▁Hand	-10.9282
Greg	-10.9285
▁afternoon	-10.9285
▁Pay	-10.9286
watch	-10.9286
Che	-10.9287
▁value	-10.9292
Ky	-10.9294
▁sum	-10.9296
bill	-10.9299
AN	-10.9303
OF	-10.9307
Make	-10.9307
▁Louis	-10.9309
doll	-10.9314
wal	-10.9315
▁apply	-10.9315
▁finding	-10.9318
▁blow	-10.9319
fun	-10.9319
iest	-10.9322
rp	-10.9323
dh	-10.9328
▁Award	-10.9328
dom	-10.9329
💸	-10.9332
ao	-10.9334
▁Turn	-10.9337
rry	-10.934
▁bottle	-10.9348
BU	-10.9355
▁taught	-10.9358
▁refuse	-10.9358
🎤	-10.936
ender	-10.9364
▁Won	-10.9364
SEO	-10.9365
III	-10.9366
Wa	-10.9368
emo	-10.9368
▁plane	-10.9368
▁expected	-10.9369
▁Didn	-10.9369
raw	-10.9374
fest	-10.9375
iv	-10.9379
If	-10.9382
▁Single	-10.9383
▁stick	-10.9383
▁ideas	-10.9387
▁grown	-10.9393
▁Than	-10.9393
▁HATE	-10.9399
shin	-10.94
▁hero	-10.94
uri	-10.9401
JD	-10.9401
rate	-10.9403
▁Future	-10.9412
▁Lana	-10.9412
▁crime	-10.9413
Dar	-10.9417
✖	-10.9417
bert	-10.9421
ets	-10.9422
try	-10.9422
sup	-10.9422
▁Plan	-10.9423
▁steal	-10.9428
History	-10.9429
»	-10.9431
▁Ass	-10.9433
ult	-10.9433
▁Gift	-10.9434
take	-10.9435
▁note	-10.9436
col	-10.9442
▁plays	-10.9442
▁THERE	-10.9443
▁model	-10.9444
Key	-10.9444
▁Ba	-10.9446
▁keeping	-10.9447
▁Road	-10.9448
BleacherReport	-10.945
ors	-10.945
▁joy	-10.9451
▁Cover	-10.9451
▁Silver	-10.9451
Jen	-10.9451
Take	-10.9452
▁Luke	-10.9454
js	-10.9457
▁Kids	-10.9457
▁Internet	-10.9459
▁Smh	-10.946
chin	-10.9462
Over	-10.9466
George	-10.9467
▁birth	-10.9469
HillaryClinton	-10.9472
PP	-10.9478
Film	-10.9479
test	-10.9479
ASS	-10.9482
Dem	-10.9486
fm	-10.9486
aid	-10.9489
▁Support	-10.9492
Fit	-10.9493
▁turning	-10.9494
SN	-10.9494
born	-10.9494
▁idiot	-10.9495
▁button	-10.9496
▁mf	-10.9497
tte	-10.9497
▁Sleep	-10.95
arm	-10.9501
👫	-10.9507
Ian	-10.9507
▁countries	-10.951
wn	-10.9512
Kiss	-10.9512
▁profile	-10.9517
▁Minister	-10.952
▁evidence	-10.9523
LS	-10.9525
🖤	-10.9528
▁Again	-10.953
mail	-10.9531
▁blocked	-10.9532
ative	-10.9533
▁NFL	-10.9537
SK	-10.9537
fat	-10.9539
▁31	-10.9544
▁Selena	-10.9544
▁Honestly	-10.9547
Zayn	-10.9548
▁rights	-10.9552
▁University	-10.9554
Squad	-10.9555
First	-10.9558
vr	-10.9559
Tri	-10.956
▁Mac	-10.9563
🏿	-10.9567
▁jus	-10.9569
▁leaders	-10.957
▁Coming	-10.9571
dont	-10.9572
lord	-10.9574
▁Shop	-10.9574
hor	-10.9574
gon	-10.9574
▁faith	-10.9578
PushAwardsKathNi	-10.9578
▁fail	-10.958
ric	-10.9581
🇷	-10.9583
▁breaking	-10.9584
Jessica	-10.9588
▁HOT	-10.9588
▁performing	-10.9591
▁asks	-10.9593
listed	-10.9596
▁bday	-10.9596
▁contract	-10.9596
Mary	-10.9599
▁sea	-10.9604
Savage	-10.9605
▁Sa	-10.9605
▁weren	-10.9606
TON	-10.9608
nnn	-10.9609
Rachel	-10.9612
▁HAS	-10.9615
🎧	-10.9621
kel	-10.9622
prince	-10.9622
Eye	-10.9624
tru	-10.9625
tes	-10.9627
Scar	-10.9628
Jet	-10.963
▁Rain	-10.963
▁Ugh	-10.9636
▁seat	-10.9638
BT	-10.9638
▁heat	-10.9644
Bella	-10.9644
▁Demi	-10.9646
RIP	-10.9649
▁station	-10.965
Dark	-10.9655
▁Key	-10.9662
Ci	-10.9662
Crew	-10.9667
Emma	-10.9667
▁feat	-10.9669
WA	-10.9669
Mari	-10.9675
▁Rey	-10.9677
▁jimin	-10.9678
kins	-10.9679
▁AS	-10.968
▁bf	-10.9681
▁nose	-10.9682
FreddyAma	-10.9683
shan	-10.9684
NJ	-10.9689
ashley	-10.969
ross	-10.9697
space	-10.9698
▁rap	-10.9703
pos	-10.9703
▁industry	-10.9704
Nu	-10.9713
TFBJP	-10.9713
INT	-10.9714
kn	-10.9715
8:	-10.9718
▁Food	-10.9719
Maine	-10.972
▁avoid	-10.9721
▁Spring	-10.9722
AW	-10.9722
▁partner	-10.9724
▁signs	-10.9725
▁Three	-10.9725
ista	-10.9727
nut	-10.9728
qua	-10.9728
🔴	-10.973
▁prefer	-10.973
▁jokes	-10.9733
▁closed	-10.9734
Tre	-10.9735
gn	-10.9735
mes	-10.9738
▁Putin	-10.9744
South	-10.9751
oop	-10.9752
TED	-10.9753
load	-10.9756
▁Body	-10.9757
▁confirm	-10.9762
▁names	-10.9762
thi	-10.9766
mos	-10.9766
▁International	-10.9767
▁hat	-10.9768
▁wondering	-10.9776
Ly	-10.9777
▁popular	-10.978
Mon	-10.9782
CL	-10.9784
Tyler	-10.9785
▁Club	-10.9789
▁Gonna	-10.9789
▁WOW	-10.9789
▁pet	-10.979
▁Hair	-10.979
TEAM	-10.9792
hil	-10.9793
BOO	-10.9797
School	-10.9798
jam	-10.9798
▁300	-10.9801
cle	-10.9805
jess	-10.9806
Johnson	-10.9808
jeon	-10.9809
FE	-10.9809
▁feed	-10.981
▁messages	-10.9811
▁Wind	-10.9813
GM	-10.9818
izzy	-10.982
▁wanting	-10.9821
▁picked	-10.9822
▁Awesome	-10.9828
hair	-10.9829
▁apparently	-10.983
▁45	-10.9831
▁winter	-10.9832
UR	-10.9833
▁drugs	-10.9836
Para	-10.984
Arsenal	-10.984
▁Dad	-10.9841
▁Joe	-10.9842
Down	-10.9846
▁solo	-10.985
▁cap	-10.9852
▁Making	-10.9853
Grace	-10.9853
nit	-10.9855
slay	-10.9857
Ron	-10.9857
▁booty	-10.9859
PER	-10.9863
CBS	-10.9863
▁Dress	-10.9865
▁progress	-10.9868
hold	-10.9869
GR	-10.9873
▁purpose	-10.9874
Fu	-10.9876
▁rude	-10.9884
▁sir	-10.9884
uz	-10.9886
▁Link	-10.9887
print	-10.9888
Bel	-10.9892
▁cop	-10.9892
▁hella	-10.9893
▁AGAIN	-10.9893
▁Ball	-10.9896
▁outfit	-10.9898
▁Health	-10.9899
▁Modi	-10.99
▁showed	-10.9902
▁arms	-10.9904
▁host	-10.9909
▁Sat	-10.991
▁common	-10.9917
Joy	-10.9919
vent	-10.992
lick	-10.9921
YA	-10.9922
gotten	-10.9923
▁BO	-10.9926
Soul	-10.9927
Air	-10.9927
lam	-10.9928
Duck	-10.9928
▁talked	-10.9928
GS	-10.9932
▁cuddle	-10.9933
▁willing	-10.9933
MG	-10.9942
🌚	-10.9942
▁Bank	-10.9944
▁mix	-10.9945
▁kno	-10.9949
▁Via	-10.995
▁Europe	-10.9952
ZA	-10.9952
▁Trying	-10.9954
Chicago	-10.9957
yl	-10.9959
Beat	-10.996
▁Somebody	-10.996
shawn	-10.9962
swag	-10.9962
break	-10.9963
▁Such	-10.9964
▁Trust	-10.9965
▁places	-10.9967
DD	-10.9967
dam	-10.9968
▁Much	-10.9968
narendramodi	-10.9977
Baseball	-10.9979
▁Per	-10.9983
▁friendship	-10.9983
▁helped	-10.9985
▁example	-10.9987
▁marry	-10.9988
ei	-10.9989
▁smiling	-10.9994
Hunter	-10.9995
▁MUSIC	-10.9995
steve	-10.9995
Apple	-10.9996
MU	-11.0001
▁wide	-11.0003
▁defense	-11.0011
LIVE	-11.0013
▁strength	-11.0013
▁170	-11.0014
Tru	-11.0014
▁Ladies	-11.0014
JJ	-11.0015
Han	-11.0016
▁Pls	-11.0018
pped	-11.0019
Work	-11.0019
▁accounts	-11.0022
▁schedule	-11.0022
▁cheese	-11.0022
▁abt	-11.0026
VP	-11.0026
▁Send	-11.0035
▁Add	-11.0035
wel	-11.0035
leg	-11.0037
FI	-11.0037
Frank	-11.0038
▁teen	-11.0039
▁Face	-11.0039
▁edit	-11.004
▁Father	-11.0041
▁research	-11.0044
SHA	-11.0045
▁Tom	-11.0045
HU	-11.0045
Books	-11.0048
Press	-11.0048
End	-11.0051
▁Tips	-11.0051
▁noticed	-11.0052
▁charge	-11.0054
Never	-11.0054
▁massive	-11.0058
bbc	-11.0058
▁Vegas	-11.0059
▁LeBron	-11.0061
▁females	-11.0066
dev	-11.0067
▁timeline	-11.0069
▁Fucking	-11.0069
Par	-11.007
Daddy	-11.0071
▁ran	-11.0072
▁Miami	-11.0074
▁horrible	-11.0074
year	-11.0074
▁closer	-11.0075
tty	-11.0076
mont	-11.008
▁fantastic	-11.0081
▁below	-11.0081
▁Them	-11.0081
sara	-11.0081
Emily	-11.0085
lash	-11.0089
days	-11.009
▁rape	-11.0091
JK	-11.0092
Reid	-11.0092
bangtan	-11.0093
today	-11.0097
fact	-11.0097
Gary	-11.0099
ATION	-11.01
▁flag	-11.0103
▁France	-11.0106
▁received	-11.0107
wall	-11.0109
▁Ben	-11.011
ello	-11.0112
▁trans	-11.0114
kook	-11.0116
Cap	-11.0116
▁holy	-11.0119
iah	-11.012
▁WOULD	-11.0122
▁protest	-11.0123
Story	-11.0129
Artist	-11.0131
ified	-11.0138
▁crack	-11.0142
▁false	-11.0143
pac	-11.0143
▁cook	-11.0146
▁repeat	-11.0148
▁complain	-11.0149
▁Smith	-11.0149
ain	-11.015
nc	-11.0152
▁negative	-11.0153
▁policy	-11.0153
stein	-11.0154
▁dangerous	-11.0157
▁PRO	-11.0158
lad	-11.0159
▁Says	-11.016
⚠	-11.0164
▁sooo	-11.0166
cel	-11.0168
▁Tune	-11.0171
▁Israel	-11.0174
▁Brexit	-11.0176
▁heaven	-11.0182
Steph	-11.0184
SD	-11.0186
▁blessing	-11.0188
360	-11.0189
sof	-11.0191
Days	-11.0192
glo	-11.0193
▁absolute	-11.0194
aaaaa	-11.0196
ther	-11.0198
▁remind	-11.02
▁foreign	-11.0203
Jamie	-11.0203
mn	-11.0204
Simply	-11.0205
▁wind	-11.0206
Photo	-11.0209
▁hashtag	-11.021
dor	-11.0211
▁Series	-11.0212
▁Law	-11.0213
▁forgive	-11.0214
Jean	-11.0216
Bre	-11.0216
▁airport	-11.0218
AustinMahone	-11.0219
imp	-11.0219
🎥	-11.0221
mia	-11.0221
Style	-11.0222
zu	-11.0223
od	-11.023
pay	-11.0236
▀	-11.0236
🎃	-11.0236
▁lyrics	-11.0239
ooooo	-11.0239
▁changing	-11.024
sto	-11.0248
Band	-11.0251
▁ring	-11.0254
▁natural	-11.0256
ander	-11.0259
▁interest	-11.0263
▁crash	-11.0263
Voice	-11.0264
hl	-11.0264
▁include	-11.0265
Ram	-11.0269
▁eBay	-11.0269
wy	-11.027
▁easier	-11.0272
design	-11.0276
Dean	-11.0279
cole	-11.0281
Aaron	-11.0283
UT	-11.0284
bc	-11.0284
▁neck	-11.0286
HE	-11.0287
▁traffic	-11.0291
ture	-11.0292
▁dope	-11.0295
main	-11.0297
▁Anti	-11.0297
▁facts	-11.0297
EA	-11.0299
cock	-11.0299
morning	-11.0301
▁park	-11.0301
soo	-11.0301
▁matters	-11.0303
▁radio	-11.0307
loo	-11.0308
books	-11.0311
tony	-11.0311
▁cross	-11.0312
come	-11.0315
bury	-11.0316
hannah	-11.0317
IA	-11.0318
Gr	-11.0325
Hill	-11.033
ages	-11.033
▁becoming	-11.0331
▁Beach	-11.0331
MONEY	-11.0332
tag	-11.0333
Nash	-11.0337
XO	-11.034
▁grateful	-11.0341
▁leg	-11.0344
liam	-11.0345
▁dry	-11.0346
▁guide	-11.0347
peach	-11.0347
brooks	-11.0348
Quotes	-11.0348
zen	-11.0355
wen	-11.0359
LM	-11.036
hum	-11.0364
corn	-11.0364
tail	-11.037
▁recently	-11.037
hour	-11.0372
▁Lmfao	-11.0373
Monster	-11.0375
▁target	-11.0383
▁moon	-11.0384
▁silence	-11.0384
▁Army	-11.0385
etsy	-11.0386
part	-11.0386
Stay	-11.0386
▁UR	-11.0387
▁Ch	-11.0392
boys	-11.0393
Bow	-11.0393
▁milk	-11.0397
aan	-11.0404
hhhh	-11.0407
Drew	-11.0408
Earth	-11.0409
Here	-11.041
Anna	-11.041
hes	-11.0412
non	-11.0412
LD	-11.0412
Promo	-11.0412
▁corner	-11.0413
▁address	-11.0413
ATE	-11.0415
daddy	-11.0415
▁argue	-11.0418
📷	-11.042
shirt	-11.0423
▁shout	-11.0426
cer	-11.0426
Today	-11.0427
Ang	-11.0432
▁among	-11.0434
card	-11.0435
dc	-11.0437
null	-11.044
ayy	-11.0441
▁HD	-11.045
pot	-11.045
Ent	-11.0451
▁crisis	-11.0451
▁Zayn	-11.0454
▁Secret	-11.0458
▁legend	-11.0462
nce	-11.0462
state	-11.0462
▁math	-11.0464
▁defend	-11.0467
funny	-11.0473
▁vid	-11.0475
rio	-11.0475
▁cried	-11.0475
▁MA	-11.0477
Fr	-11.048
800	-11.048
▁Crazy	-11.048
BL	-11.0482
▁GOING	-11.0485
▁Order	-11.0485
▁Hahaha	-11.0485
🙂	-11.0487
▁EVERY	-11.0491
▁FIRST	-11.0497
▁blind	-11.0498
Canada	-11.0498
▁Pakistan	-11.0499
turn	-11.0499
tter	-11.0499
▁Minaj	-11.0504
kie	-11.0506
▁Former	-11.0509
TB	-11.0509
▁Tickets	-11.0509
bru	-11.0511
▁Scott	-11.0513
▁Miley	-11.0513
▁tattoo	-11.0517
▁insane	-11.0521
bridge	-11.0521
Stan	-11.0521
▁cash	-11.0523
▁numbers	-11.0525
▁global	-11.0528
Gaming	-11.0528
Gar	-11.0528
rrr	-11.0532
▁Actually	-11.0532
hal	-11.0534
Laura	-11.0535
▁hoping	-11.0536
🌞	-11.0542
rian	-11.0542
Games	-11.0544
EE	-11.0546
▁anxiety	-11.0548
▁Su	-11.0551
▁admit	-11.0552
▁Cancer	-11.0552
▁LMFAO	-11.0553
▁written	-11.0554
dra	-11.0554
chen	-11.0555
▁large	-11.0555
MN	-11.0556
111	-11.0557
kit	-11.0557
▁animals	-11.056
OneDirection	-11.0562
▁camp	-11.0563
▁finger	-11.0563
child	-11.0565
gee	-11.0567
vn	-11.0571
burger	-11.0575
▁spirit	-11.0575
Anne	-11.0576
NHL	-11.0577
▁provide	-11.0579
▁Sam	-11.0581
anda	-11.0582
▁speed	-11.0582
GOD	-11.0583
▁jobs	-11.0589
▁texts	-11.0591
▁trend	-11.0595
▁stomach	-11.0595
▁asf	-11.0595
Pet	-11.0596
Call	-11.0598
brand	-11.06
Brandon	-11.0601
DU	-11.0605
Sunday	-11.0606
Snap	-11.0608
▁brings	-11.0609
here	-11.061
under	-11.0612
Fashion	-11.0612
▁anywhere	-11.0612
ariana	-11.0615
iq	-11.0616
Ari	-11.0616
billboard	-11.0618
Help	-11.0628
▁talented	-11.0631
NP	-11.0632
frank	-11.0633
stick	-11.0635
sho	-11.0635
▁ending	-11.0638
▁Leave	-11.0639
▁Kill	-11.064
▁Fast	-11.0642
cro	-11.0643
Sea	-11.0643
Sta	-11.0649
Brad	-11.0653
▁Germany	-11.0654
km	-11.0655
master	-11.0658
Secret	-11.0659
Jackson	-11.0659
▁politics	-11.0661
▁Release	-11.0662
▁storm	-11.0663
rev	-11.0664
ify	-11.0664
eg	-11.0665
▁marriage	-11.0666
Hour	-11.0672
▁breathe	-11.0674
▁becomes	-11.0678
Tan	-11.0681
core	-11.0682
▁staying	-11.0682
Project	-11.0683
▁freaking	-11.0684
▁general	-11.0685
▁obviously	-11.0686
ments	-11.069
AFC	-11.069
Lou	-11.0692
▁TONIGHT	-11.0692
▁planet	-11.0697
ization	-11.0698
emma	-11.0698
▁bestfriend	-11.0698
walked	-11.0698
chill	-11.0703
punk	-11.0704
😓	-11.071
127	-11.0713
rey	-11.0714
▁trump	-11.0717
▁fired	-11.0718
nna	-11.0722
iti	-11.0723
Thoughts	-11.0727
▁goin	-11.0728
Gift	-11.0729
bella	-11.0729
▁brilliant	-11.0731
IAm	-11.0731
▁impact	-11.0731
soft	-11.0731
▁bother	-11.0734
▁runs	-11.0734
▁SHOW	-11.0736
RB	-11.0736
jd	-11.0738
Trap	-11.0738
▁Ji	-11.0739
ition	-11.074
▁Th	-11.0741
bie	-11.0741
▁brothers	-11.0743
▁Bitches	-11.0746
▁continues	-11.0751
Sara	-11.0753
▁County	-11.0753
lis	-11.0756
lane	-11.0758
Gov	-11.0759
jer	-11.076
😣	-11.0761
Ve	-11.0764
hiring	-11.0764
STA	-11.0765
fab	-11.077
▁reports	-11.0771
thing	-11.0771
lex	-11.0771
▁result	-11.0773
🏈	-11.0777
▁rule	-11.0777
army	-11.0779
▁comfortable	-11.078
▁Lets	-11.078
var	-11.0784
sco	-11.0788
www	-11.0791
▁Ka	-11.0792
▁request	-11.0792
190	-11.0794
Freedom	-11.0794
trap	-11.0796
Ce	-11.0798
youtube	-11.0799
MUFC	-11.08
gov	-11.0804
▁Fight	-11.081
entered	-11.0812
😹	-11.0812
▁hype	-11.0813
▁precious	-11.0816
aire	-11.0816
boss	-11.0816
TheMattEspinosa	-11.0817
jar	-11.0818
▁Run	-11.0823
ova	-11.0827
nik	-11.0832
Ab	-11.0832
Light	-11.0835
▁YALL	-11.0836
Jan	-11.084
jet	-11.0843
▁launch	-11.0846
▁sentence	-11.0849
Gamer	-11.085
▁sort	-11.0851
ute	-11.0854
▁bathroom	-11.0855
Based	-11.0859
tle	-11.086
Jason	-11.086
▁Break	-11.0861
▁Us	-11.0863
Open	-11.0867
▁Drop	-11.0867
RAW	-11.0867
RL	-11.0867
rage	-11.0871
pad	-11.0873
irl	-11.0874
▁apologize	-11.0882
bet	-11.0884
gie	-11.0885
Cali	-11.0889
🌈	-11.089
▁Both	-11.089
Gal	-11.0891
▁Pic	-11.0891
IST	-11.0895
tits	-11.0898
Hiring	-11.0899
▁driver	-11.0901
Wild	-11.0903
ington	-11.0903
Vo	-11.0904
▁Bernie	-11.0907
hou	-11.0908
▁tries	-11.0909
uring	-11.091
order	-11.091
▁Million	-11.091
▁built	-11.0914
▁Mood	-11.0915
martin	-11.0916
video	-11.0916
Cute	-11.0917
☞	-11.0921
sir	-11.0921
Er	-11.0921
▁oil	-11.0922
▁Sweet	-11.0925
ssss	-11.0925
mah	-11.0926
▁grab	-11.0927
rai	-11.0927
ike	-11.0928
▁Death	-11.0929
▁signing	-11.0931
▁drug	-11.0932
Face	-11.0933
biz	-11.0934
▁herself	-11.0937
▁DA	-11.0937
Mer	-11.0939
🍂	-11.094
▁2012	-11.094
alter	-11.0946
United	-11.095
nite	-11.0952
Thats	-11.0952
▁Steve	-11.0953
▁ALWAYS	-11.0954
aki	-11.0957
▁stock	-11.0957
eBay	-11.0957
als	-11.0959
▁concept	-11.0965
pun	-11.0969
Hope	-11.0971
▁Grande	-11.0971
nny	-11.0974
flo	-11.0976
▁Ten	-11.0976
▁Rose	-11.098
shot	-11.0981
▁mistakes	-11.0986
flu	-11.0989
mit	-11.0991
▁higher	-11.0994
▁Sad	-11.0994
▁Literally	-11.0997
▁WAIT	-11.1001
▁Valentine	-11.1004
tw	-11.1004
▁slowly	-11.1006
▁READ	-11.1007
Hoes	-11.1007
666	-11.1008
gri	-11.1008
Pra	-11.1008
▁screaming	-11.1009
kayla	-11.101
Support	-11.1011
Reuters	-11.1014
▁Final	-11.1018
▁OVER	-11.1018
Ross	-11.1019
ego	-11.1021
▁comp	-11.1022
▁remain	-11.1023
dead	-11.1023
Google	-11.1025
▁spring	-11.1025
ttle	-11.1026
OM	-11.1027
mir	-11.1032
▁collection	-11.1033
Made	-11.1034
▁plz	-11.1035
▁Cool	-11.1036
▁program	-11.1036
▁Mini	-11.1042
▁Manager	-11.1044
▁heavy	-11.1045
Bryan	-11.1045
Alan	-11.1046
Hero	-11.1047
▁ridiculous	-11.1047
Trill	-11.1049
Soccer	-11.105
▁FOLLOWBACK	-11.1051
Bal	-11.1053
▁xD	-11.1053
ONE	-11.1054
Blake	-11.1057
▁32	-11.1058
▁window	-11.1059
tas	-11.106
vers	-11.106
EW	-11.1061
🇧	-11.1062
🌊	-11.1062
err	-11.1063
mond	-11.1063
log	-11.1066
LP	-11.1067
▁Act	-11.1071
▁rise	-11.1072
troll	-11.1072
fully	-11.1073
was	-11.1076
Biz	-11.1078
▁legit	-11.1078
▁Fun	-11.1079
larry	-11.108
▁Without	-11.1082
▁lips	-11.1084
Yung	-11.1086
▁itself	-11.1087
▁awful	-11.1088
lts	-11.1092
▁harry	-11.1093
Hannah	-11.1096
YG	-11.1097
shots	-11.1098
bone	-11.1099
Williams	-11.11
▁victims	-11.1101
Why	-11.1105
▁posting	-11.1106
shaw	-11.1106
sub	-11.1106
▁doesnt	-11.1107
FOX	-11.1109
▁journey	-11.1115
▁shift	-11.1116
bug	-11.1116
▁El	-11.1122
Gre	-11.1124
Fresh	-11.1126
lm	-11.1127
ough	-11.1129
los	-11.1129
zone	-11.1141
Bl	-11.1143
▁option	-11.1143
▁upon	-11.1143
alt	-11.1144
asia	-11.1148
▁rate	-11.115
▁Dream	-11.1154
UFC	-11.1157
▁Glad	-11.1158
▁congrats	-11.1158
gin	-11.1159
xy	-11.1159
▁Christian	-11.1162
oy	-11.1165
▁society	-11.1165
Ny	-11.1166
ration	-11.1167
Jae	-11.1168
YT	-11.1172
▁ISIS	-11.1174
▁Kevin	-11.1178
nz	-11.1179
Graham	-11.1183
▁homie	-11.1185
777	-11.1188
Babe	-11.1189
▁Houston	-11.1189
trump	-11.1191
▁faces	-11.1192
isha	-11.1193
▁forced	-11.1193
▁TAKE	-11.1193
Mas	-11.1196
Son	-11.1199
Tr	-11.1199
▁extremely	-11.1202
constantly	-11.1203
▁NBA	-11.1204
unt	-11.1204
▁according	-11.1204
Que	-11.1206
▁machine	-11.1208
▁supporters	-11.1208
▁kidding	-11.121
▁breath	-11.1211
Run	-11.1215
▁mirror	-11.1218
uma	-11.1218
Cole	-11.1219
Empire	-11.1222
times	-11.1223
ccidentally	-11.1224
▁conference	-11.1226
hit	-11.1228
▁Ryan	-11.1228
bean	-11.123
▁beer	-11.1235
ht	-11.1237
▁pressure	-11.1237
▁Radio	-11.1238
Bob	-11.1238
▁invite	-11.1239
▁nine	-11.1239
butt	-11.124
▁mid	-11.1241
dem	-11.1241
Gra	-11.1245
rup	-11.1246
▁earning	-11.1246
Hall	-11.1247
inder	-11.1248
▁favor	-11.1249
hero	-11.125
nice	-11.125
movie	-11.1251
MEN	-11.1252
▁Sh	-11.1259
posts	-11.1261
→	-11.1263
web	-11.1264
▁freak	-11.1265
Europe	-11.1265
Lin	-11.1267
Raj	-11.1267
▁term	-11.127
Chase	-11.127
Ghost	-11.1271
pee	-11.1274
Jesus	-11.1276
▁suddenly	-11.1276
Tra	-11.1278
▁saving	-11.1278
bed	-11.128
▁carry	-11.128
▁accident	-11.128
HT	-11.1281
eeeee	-11.1281
▁Done	-11.1282
RED	-11.1282
kris	-11.1283
💅	-11.1283
▁freedom	-11.1283
▁CNN	-11.1283
sol	-11.1286
mur	-11.1295
met	-11.1296
▁SONG	-11.1299
▁CEO	-11.1299
▁Yall	-11.1306
▁smoking	-11.131
IV	-11.1311
▁quiz	-11.1313
EC	-11.1313
issa	-11.1313
sar	-11.1316
▁crap	-11.1317
jordan	-11.1319
Nature	-11.132
▁Dude	-11.132
Land	-11.1321
sue	-11.1322
▁quote	-11.1322
Tae	-11.1327
Hur	-11.1327
Directioners	-11.1328
Fo	-11.1331
FU	-11.1334
aha	-11.134
Gee	-11.1347
TWICE	-11.1347
▁nasty	-11.135
JaDine	-11.1354
▁Fan	-11.1357
swift	-11.1362
WE	-11.1362
▁characters	-11.1364
👻	-11.1372
▁EVEN	-11.1373
🏃	-11.1377
Amber	-11.1381
tting	-11.1382
jh	-11.1383
▁Friend	-11.1386
▁FAV	-11.1386
▁raised	-11.1386
▁Dont	-11.1394
▁Wa	-11.1395
Head	-11.1398
Dory	-11.1399
▁Save	-11.1401
▁hitting	-11.1401
▁dare	-11.1403
▁Might	-11.1406
▁Ed	-11.1407
hip	-11.1408
▁fave	-11.141
▁GIRL	-11.141
Katie	-11.1411
▁moves	-11.1411
▁Queen	-11.1413
▁ASS	-11.1414
▁attend	-11.1415
lly	-11.1415
Gay	-11.1417
▁sat	-11.1417
uuu	-11.142
followback	-11.1421
Hard	-11.1422
▁Breaking	-11.1423
dick	-11.1425
olo	-11.1425
lea	-11.1427
Alert	-11.1427
▁moved	-11.1429
▁Dog	-11.143
Il	-11.143
North	-11.1431
hm	-11.1436
▁selfies	-11.1437
▁finna	-11.1438
▁obsessed	-11.1439
▁Left	-11.144
►	-11.1441
🌿	-11.1441
ida	-11.1442
▁Bring	-11.1444
▁claims	-11.1446
▁destroy	-11.1447
TN	-11.1449
▁lame	-11.1453
▁Jordan	-11.1458
▁assault	-11.1458
▁innocent	-11.1461
tard	-11.1462
▁Nigeria	-11.1462
▁average	-11.1462
yer	-11.1462
▁confirmed	-11.1463
graphic	-11.1466
▁Test	-11.1469
▁nominate	-11.1475
RN	-11.1475
`	-11.1476
skin	-11.1477
Walker	-11.1477
▁iTunes	-11.1479
▁classic	-11.1488
Change	-11.149
▁rare	-11.1492
▁lonely	-11.1492
vine	-11.1493
▁Into	-11.1497
▁doctor	-11.1498
Fest	-11.1499
▁Almost	-11.1502
▁millions	-11.1504
lets	-11.1505
▁Code	-11.1508
▁Spanish	-11.1508
▁anniversary	-11.1511
alia	-11.1512
▁suggest	-11.1514
Smile	-11.1515
▁throwing	-11.1518
911	-11.1519
BOY	-11.1523
ised	-11.1523
▁impossible	-11.1524
▁Human	-11.1527
amo	-11.1527
Right	-11.1529
Space	-11.153
wife	-11.1532
▁Change	-11.1533
Pe	-11.1533
♫	-11.1534
▁disrespect	-11.1536
how	-11.1537
phone	-11.1541
angle	-11.1542
▁knock	-11.1543
fy	-11.1543
▁AMAZING	-11.1544
▁waking	-11.1549
hunt	-11.1549
More	-11.155
Slim	-11.1552
Far	-11.1552
Update	-11.1554
▁expensive	-11.1554
▁lied	-11.1555
nx	-11.1556
▁Fall	-11.1564
kelly	-11.1565
Dis	-11.1566
SexualGif	-11.1567
▁proof	-11.1567
Mil	-11.1568
foto	-11.157
McC	-11.1571
Bell	-11.1571
ral	-11.1571
☹	-11.1574
MT	-11.1577
Magic	-11.1578
Texas	-11.1579
▁grand	-11.1579
bighit	-11.1582
▁sleepy	-11.1583
bh	-11.1583
▁Size	-11.1585
rb	-11.1586
BRA	-11.1589
▁McDonald	-11.159
▁CD	-11.1592
▁drawing	-11.1592
Fat	-11.1593
▁goodbye	-11.1596
Dom	-11.1596
Fl	-11.16
place	-11.16
▁attacks	-11.16
▁Grand	-11.1601
▁Muslims	-11.1602
wee	-11.1603
Joseph	-11.1604
▁Class	-11.1605
AGE	-11.1608
Kids	-11.161
oke	-11.1611
MAMA	-11.1612
007	-11.1612
Cheap	-11.1616
▁accurate	-11.1625
▁asshole	-11.1628
▁Exactly	-11.1628
CHE	-11.1631
sia	-11.1632
▁teeth	-11.1633
▁Fake	-11.1636
fin	-11.1637
▁MV	-11.1641
TING	-11.1641
Master	-11.1642
fans	-11.1645
Chick	-11.1645
▁quickly	-11.1646
och	-11.1646
▁sales	-11.1646
RES	-11.1646
▁board	-11.1648
▁guns	-11.1649
dust	-11.165
RD	-11.1652
Bat	-11.1652
page	-11.1653
Pas	-11.1653
▁fashion	-11.1654
▁Korean	-11.1658
cross	-11.1659
phe	-11.1663
▁Market	-11.1667
▁mini	-11.1671
rum	-11.1671
Boys	-11.1672
look	-11.1673
Joey	-11.1675
▁potential	-11.1675
▁Robert	-11.1675
aro	-11.1679
Sec	-11.1679
▁computer	-11.1681
▁dollars	-11.1683
▁Hold	-11.1683
ille	-11.1684
▁planning	-11.1687
mill	-11.169
ava	-11.1691
chy	-11.1694
▁Drive	-11.1698
script	-11.1699
▁SAY	-11.1702
▁barely	-11.1702
seok	-11.1703
Clark	-11.1705
season	-11.1706
😖	-11.1709
▁thousands	-11.171
oli	-11.1713
▁classes	-11.1716
Pre	-11.1716
▁prayers	-11.1716
▁Peter	-11.172
▁exclusive	-11.1723
▁lights	-11.1724
▁streaming	-11.1726
▁Lake	-11.1728
Ku	-11.1728
▁source	-11.1728
Eli	-11.1733
▁Waiting	-11.1733
▁Wtf	-11.1738
wei	-11.1739
Town	-11.1739
fitness	-11.1741
rae	-11.1742
Honey	-11.1744
▁BJP	-11.1745
Io	-11.1746
▁argument	-11.1746
Common	-11.1747
▁economy	-11.1751
honey	-11.1752
▁General	-11.1753
▁160	-11.1753
Uni	-11.1755
Xx	-11.1755
Ice	-11.176
amy	-11.1763
help	-11.1765
▁handsome	-11.1765
pol	-11.1766
mis	-11.1767
▁Android	-11.1769
Jess	-11.177
ath	-11.177
Ay	-11.1773
▁Hollywood	-11.1775
Cro	-11.1778
family	-11.1779
jas	-11.1782
nytimes	-11.1784
▁Government	-11.1784
▁racism	-11.1784
▁European	-11.1785
▁criminal	-11.179
moo	-11.1791
pack	-11.1791
▁Jan	-11.1791
▁poster	-11.1792
▁Los	-11.1792
▁pitch	-11.1793
eve	-11.1795
flower	-11.1797
Del	-11.1798
KD	-11.1799
▁Pat	-11.1799
▁GONNA	-11.18
screen	-11.18
▁workers	-11.1801
DM	-11.1802
tho	-11.1803
via	-11.1807
▁movement	-11.1809
▁TOP	-11.1809
true	-11.181
mission	-11.181
ub	-11.1813
▁Ah	-11.1814
▁artists	-11.1815
omg	-11.1817
▁leaves	-11.1819
▁Brazil	-11.1822
lion	-11.1824
▁shitty	-11.1824
jane	-11.1824
Business	-11.1824
Racing	-11.1824
but	-11.1825
Animal	-11.1828
sur	-11.183
▁instagram	-11.1833
Buy	-11.1834
dave	-11.1835
▁Lot	-11.1835
👽	-11.1836
▁demand	-11.1839
▁dropping	-11.184
SoDamnTrue	-11.1841
funniest	-11.1844
cker	-11.1845
▁draft	-11.1845
▁UPDATE	-11.1846
▁iconic	-11.1846
ori	-11.1847
rash	-11.1849
rv	-11.185
▁enjoying	-11.1852
Shop	-11.1853
Sar	-11.1855
▁Judge	-11.1857
Ant	-11.1857
rou	-11.1857
▁Pick	-11.1857
adi	-11.1858
▁cos	-11.1861
lap	-11.1862
Ry	-11.1864
Wi	-11.1864
Moon	-11.1867
Craft	-11.187
▁streets	-11.187
forever	-11.1873
▁BBC	-11.1874
Page	-11.1876
lands	-11.1876
Vines	-11.1876
shed	-11.1877
Sin	-11.1877
kitty	-11.1877
▁yoongi	-11.188
▁emotions	-11.1881
ters	-11.1882
▁states	-11.1883
365	-11.1884
Ana	-11.1888
cin	-11.1891
🎀	-11.1893
▁dates	-11.1894
▁chart	-11.1902
cycle	-11.1902
Ph	-11.1904
▁prom	-11.1905
Faith	-11.1906
╯	-11.1906
▁immediately	-11.1908
code	-11.1909
nerd	-11.1909
elo	-11.191
▁field	-11.191
▁Williams	-11.1911
Malik	-11.1912
▁arrived	-11.1913
▁HI	-11.1914
Rick	-11.1916
▁puts	-11.1918
▁Island	-11.1921
▁February	-11.1922
🍆	-11.1922
▁brown	-11.1923
cli	-11.1926
roy	-11.1926
iphone	-11.1927
hart	-11.1928
dn	-11.1928
▁soooo	-11.1929
▁ilysm	-11.1931
▁SM	-11.1934
▁nights	-11.1936
▁bath	-11.1937
▁exam	-11.1938
kate	-11.1938
MR	-11.1939
▁Ad	-11.1939
mine	-11.1942
arts	-11.1948
perfect	-11.195
▁piss	-11.1951
▁background	-11.1951
fav	-11.1955
short	-11.1957
▁gang	-11.1957
Tuesday	-11.1958
▁Bi	-11.1958
▁NY	-11.196
Jai	-11.1962
beth	-11.1963
▁session	-11.1966
GAIN	-11.1966
▁pulled	-11.1967
Wave	-11.1971
▁Po	-11.1972
call	-11.1972
ease	-11.1973
fair	-11.1975
ManUtd	-11.1978
shy	-11.1979
Dirty	-11.1981
DP	-11.1984
aya	-11.1986
doo	-11.1987
▁Oct	-11.1989
Says	-11.1989
▁horse	-11.1992
▁studio	-11.1992
▁WAY	-11.1993
▁Hit	-11.1994
maria	-11.1995
Code	-11.1995
Break	-11.1995
▁animal	-11.1999
Boi	-11.2
▁KST	-11.2003
▁Pink	-11.2006
Lion	-11.2006
Gun	-11.2007
rina	-11.201
▁Supreme	-11.2011
▁assume	-11.2013
alo	-11.2014
▁Pa	-11.2014
▁Brand	-11.2015
rail	-11.2016
mg	-11.2017
mix	-11.2018
▁treated	-11.2019
▁actions	-11.2023
Ever	-11.2024
Simon	-11.2026
sw	-11.2027
Tar	-11.2028
▁btw	-11.2029
wil	-11.2031
dance	-11.2032
lov	-11.2032
vol	-11.2032
damn	-11.2033
▁cars	-11.2036
Br	-11.204
CFC	-11.2041
FR	-11.2045
▁shots	-11.2048
Hindu	-11.205
cats	-11.2051
▁tips	-11.2052
glow	-11.2055
witch	-11.2055
▁Absolutely	-11.2062
Ur	-11.2064
uc	-11.2067
▁Probably	-11.2067
OO	-11.2068
train	-11.2068
eri	-11.2068
▁Phone	-11.2068
▁breaks	-11.2069
▁Mike	-11.207
▁SAID	-11.207
dub	-11.2074
walk	-11.2079
eon	-11.208
▁HARD	-11.208
▁BEEN	-11.2081
Saint	-11.2082
▁cheating	-11.2084
jp	-11.2086
LU	-11.2087
▁EVERYTHING	-11.2088
▁Service	-11.2093
Ak	-11.2093
pit	-11.2094
▁Short	-11.2094
▁multiple	-11.2094
▁Office	-11.2094
▁rally	-11.2096
▁memory	-11.2097
Bay	-11.2098
Mur	-11.2098
▁nails	-11.2102
AV	-11.2103
jung	-11.2109
JIMIN	-11.2113
MJ	-11.2114
▁buddy	-11.2114
Vine	-11.2114
ked	-11.2115
▁personality	-11.2118
▁Sanders	-11.2119
sale	-11.212
▁further	-11.212
upp	-11.2121
▁grandma	-11.2123
▁Small	-11.2124
▁threat	-11.2125
film	-11.2128
front	-11.2133
stra	-11.2138
▁victim	-11.2141
lexi	-11.2141
peter	-11.2145
▁unfollow	-11.2148
Matthew	-11.2149
Urban	-11.2149
adults	-11.215
Rod	-11.2152
HappyBirthday	-11.2155
▁professional	-11.2156
▁alot	-11.2158
▁inter	-11.2158
▁blunt	-11.2162
▁chick	-11.2165
▁beef	-11.2165
von	-11.2166
LT	-11.2169
IAN	-11.2169
Lit	-11.2172
╭	-11.2176
NRA	-11.218
FOLLOWBACK	-11.218
▁Nov	-11.2181
elect	-11.2182
▁express	-11.2184
nate	-11.2186
▁shape	-11.2186
Ste	-11.2188
Bla	-11.2189
😥	-11.219
Marketing	-11.2192
hae	-11.2193
▁heal	-11.2194
─	-11.2195
🍁	-11.2195
nct	-11.2198
Paris	-11.2198
☕	-11.2201
eth	-11.2204
fic	-11.2205
ket	-11.2205
chee	-11.2206
▁events	-11.2209
tam	-11.2212
east	-11.2213
▁center	-11.2216
Bobby	-11.2216
hn	-11.2216
mates	-11.2217
Brexit	-11.2217
▁bra	-11.2221
week	-11.2222
grant	-11.2223
▁parties	-11.2223
ification	-11.2224
▁THINK	-11.2225
Fred	-11.2226
gle	-11.2226
▁victory	-11.2229
ants	-11.223
▁leading	-11.2231
▁gf	-11.2231
wr	-11.2232
Ham	-11.2233
LED	-11.2234
cm	-11.2237
▁Hall	-11.2238
▁Christ	-11.2239
▁lower	-11.2239
▁XD	-11.224
Richard	-11.2242
Res	-11.2242
▁army	-11.2243
🇪	-11.2244
▁Beat	-11.2244
Beyonce	-11.2248
▁SP	-11.2248
▁tree	-11.2248
▁lowkey	-11.2249
▁pool	-11.225
zel	-11.2254
Bang	-11.2255
ashton	-11.2256
adult	-11.2256
Web	-11.2256
▁cock	-11.2257
▁Bowl	-11.2258
Cake	-11.2258
▁CON	-11.2259
▁relate	-11.226
Pr	-11.226
bou	-11.2274
poo	-11.2276
▁products	-11.2277
▁Pray	-11.228
thot	-11.2283
▁Prince	-11.2285
▁Name	-11.229
yi	-11.2295
▁Director	-11.2295
gas	-11.2297
drug	-11.2298
wat	-11.2299
ggy	-11.2305
ITY	-11.2306
When	-11.2307
▁govt	-11.2308
liz	-11.2309
▁WHERE	-11.231
▁Global	-11.2314
▁Latest	-11.2317
class	-11.2318
▁burn	-11.2318
STR	-11.2319
ign	-11.2322
▁Fashion	-11.2323
React	-11.2324
greg	-11.2325
dict	-11.2326
▁Martin	-11.2326
▁MT	-11.2326
▁Ep	-11.2326
tina	-11.2329
▁Le	-11.2331
Rae	-11.2335
vie	-11.2335
East	-11.2337
▁alcohol	-11.2337
▁Plus	-11.2338
MENT	-11.2341
por	-11.2343
Sub	-11.2345
Buzz	-11.2347
iPhone	-11.2348
▁Earth	-11.2349
Dy	-11.2351
▁Episode	-11.2353
▁drops	-11.2354
pizza	-11.2356
grey	-11.2356
lip	-11.236
▁butt	-11.236
Liz	-11.2363
gel	-11.2363
Drive	-11.2366
lf	-11.2369
WOR	-11.237
▁uni	-11.2371
▁hardest	-11.2372
▁wishes	-11.2374
NASA	-11.2378
Ze	-11.2382
▁services	-11.2382
Dead	-11.2384
wor	-11.2385
mv	-11.2386
Train	-11.2387
▁guilty	-11.2387
Count	-11.2388
🇳	-11.2388
▁fish	-11.239
OMG	-11.2391
▁Card	-11.2391
▁Beauty	-11.2393
ably	-11.2394
storm	-11.2396
▁German	-11.2396
truth	-11.2398
▁Deep	-11.2398
About	-11.2401
atan	-11.2402
▁BLACK	-11.2404
ando	-11.2404
▁reached	-11.2405
▁truck	-11.2405
▁HEART	-11.2406
Knight	-11.2407
ault	-11.2409
▁begins	-11.2409
astro	-11.2411
wise	-11.2411
▁whose	-11.2413
EXOL	-11.2414
▁GIVE	-11.2415
▁cheap	-11.2415
Hillary	-11.2415
▁threw	-11.2416
▁hopefully	-11.2418
Mus	-11.2418
Anthony	-11.2421
Edward	-11.2424
STAR	-11.2425
emb	-11.2426
mini	-11.2426
ene	-11.2426
sis	-11.2427
▁Madrid	-11.2432
▁international	-11.2432
asian	-11.2435
izzle	-11.2436
khan	-11.2439
diamond	-11.2443
▁companies	-11.2443
▁disappointed	-11.2443
▁Edition	-11.2446
zie	-11.2446
KY	-11.2447
▁soo	-11.2447
ique	-11.2447
own	-11.2448
▁Half	-11.2448
buzz	-11.2449
▁arm	-11.245
TFB	-11.2453
▁punch	-11.2454
aging	-11.2456
tray	-11.2457
▶	-11.2457
REAL	-11.2458
▁DJ	-11.2458
Singh	-11.2462
Kings	-11.2464
▁path	-11.2465
tress	-11.2465
LAND	-11.2466
▁vacation	-11.2466
▁failure	-11.2466
▁base	-11.2466
thy	-11.2468
▁Yea	-11.2469
any	-11.2478
Christmas	-11.2478
▁teachers	-11.2479
Royal	-11.2479
⚪	-11.2479
poli	-11.248
▁highest	-11.2485
▁seven	-11.2485
has	-11.2487
kpop	-11.2488
jim	-11.2489
RU	-11.2489
Marc	-11.2492
❌	-11.2493
▁Center	-11.2494
til	-11.2495
CauseWere	-11.2499
▁YEAR	-11.2499
oomf	-11.2499
▁suit	-11.2504
igan	-11.2505
aff	-11.2505
▁SOME	-11.2506
sexual	-11.2507
Comp	-11.2507
ML	-11.2507
▁History	-11.251
▁THESE	-11.251
▁48	-11.251
bn	-11.2511
🌙	-11.2515
Pl	-11.2516
▁Cam	-11.2516
Davis	-11.2517
GAG	-11.2517
--	-11.2519
Science	-11.252
Shit	-11.2522
smile	-11.2525
Android	-11.2531
▁taehyung	-11.2531
human	-11.2533
▁regular	-11.2534
oma	-11.2535
▁hearts	-11.2537
steph	-11.2538
OD	-11.2539
▁inspired	-11.254
Shin	-11.2547
▁Football	-11.2548
▁Second	-11.255
▁tear	-11.255
▁religion	-11.2551
Crazy	-11.2552
thehill	-11.2552
TU	-11.2555
▁voters	-11.2555
DolceAmore	-11.2557
▁opened	-11.2558
▁filled	-11.2559
rated	-11.2561
mean	-11.2561
MMA	-11.2565
▁Clean	-11.2568
archive	-11.257
cafe	-11.2571
Gain	-11.2575
Know	-11.2578
Rev	-11.2579
▁hanging	-11.2579
hea	-11.2581
Trends	-11.2581
doc	-11.2581
▁plant	-11.2583
▁Box	-11.2583
▁ten	-11.2583
▁skills	-11.2588
▁bright	-11.2589
▁network	-11.259
Hal	-11.259
whi	-11.2593
💟	-11.2593
Pride	-11.2595
▁Boys	-11.2598
▁kills	-11.2598
addict	-11.2599
Philly	-11.2601
▁Pack	-11.2602
▁afford	-11.2603
▁domain	-11.2604
street	-11.2605
cup	-11.2605
▁PIC	-11.2606
brian	-11.2606
▁LAST	-11.2606
▁Dems	-11.261
gil	-11.2614
ability	-11.2614
▁Pres	-11.2618
ANG	-11.2619
ARY	-11.262
Jesse	-11.262
Morgan	-11.2622
Dylan	-11.2622
gui	-11.2624
based	-11.2625
Freak	-11.2626
▁slap	-11.2634
sign	-11.2639
▁helps	-11.264
TEN	-11.2641
fri	-11.2642
【	-11.2644
feed	-11.2645
▁active	-11.2645
▁PA	-11.2647
Juan	-11.2648
jacob	-11.265
lv	-11.2652
nae	-11.2656
FollowBack	-11.2658
▁Britain	-11.266
Mak	-11.2663
Au	-11.2665
▁NYC	-11.2665
ONG	-11.2666
☁	-11.2666
▁Brother	-11.2667
▁nervous	-11.2669
him	-11.267
mma	-11.267
andrew	-11.2671
umble	-11.2671
Cancer	-11.2671
APP	-11.2674
🥰	-11.2675
▁Movie	-11.2676
GER	-11.2677
▁MEAN	-11.2679
▁Justice	-11.268
NW	-11.2681
Wil	-11.2683
stock	-11.2688
▁Doesn	-11.2688
▁trick	-11.2689
arch	-11.269
geek	-11.2691
▁Info	-11.2697
▁Color	-11.2698
▁scored	-11.2704
Are	-11.2705
▁shake	-11.2706
▁TOMORROW	-11.2706
leak	-11.2707
▁suicide	-11.2708
Lynn	-11.2708
Sto	-11.2708
Monday	-11.271
Fantasy	-11.2714
▁Pass	-11.2715
_2	-11.2718
Ariana	-11.2719
weather	-11.2721
Beautiful	-11.2722
▁DOWN	-11.2725
ates	-11.2726
▁cheer	-11.2726
Blu	-11.2727
dope	-11.2727
▁vine	-11.2728
oni	-11.2728
▁Lovato	-11.2729
utter	-11.2733
summer	-11.2735
▁blast	-11.2736
photooftheday	-11.2737
▁bear	-11.2737
updates	-11.2739
🌷	-11.274
Smoke	-11.2742
Olympics	-11.2747
drop	-11.2747
▁steps	-11.275
▁candidate	-11.275
monkey	-11.2751
NZ	-11.2751
▁careful	-11.2752
▁restaurant	-11.2753
slut	-11.2754
League	-11.2757
grad	-11.2759
dark	-11.276
roc	-11.276
Syria	-11.2761
HH	-11.2761
Qui	-11.2768
shell	-11.2768
▁Mexican	-11.2768
▁Giveaway	-11.277
▁sky	-11.2774
ata	-11.2775
▁direct	-11.2776
▁row	-11.2777
▁science	-11.2778
Cup	-11.2782
jade	-11.2784
▁Bless	-11.2784
🙆	-11.2786
Teen	-11.2786
wave	-11.2791
DB	-11.2791
rates	-11.2792
▁describe	-11.2794
▁serve	-11.2795
▁sweat	-11.28
▁brave	-11.2802
💝	-11.2806
Blood	-11.2809
▁onto	-11.281
👩	-11.2811
▁Ta	-11.2812
Hunt	-11.2812
▁Mary	-11.2812
】	-11.2814
▁ARMY	-11.2815
Miller	-11.2816
dotcom	-11.2816
▁PO	-11.2817
▁DAMN	-11.2817
▁leads	-11.282
▁meaning	-11.2821
JR	-11.2822
dre	-11.2822
♚	-11.2826
▁empty	-11.2826
Eng	-11.2828
zzz	-11.2828
xn	-11.2829
Fish	-11.2831
▁happiest	-11.2832
hop	-11.2832
jb	-11.2833
GF	-11.2834
▁Perry	-11.2838
▁slide	-11.2838
pussy	-11.2842
nyc	-11.2844
▁pocket	-11.2849
▁Account	-11.285
▁icon	-11.2851
▁justice	-11.2857
▁recommend	-11.2857
native	-11.2857
▁KEEP	-11.2857
▁dressed	-11.2858
Zone	-11.286
▁GREAT	-11.286
cee	-11.2864
╰	-11.2866
▁exciting	-11.2869
▁unfollower	-11.287
Hit	-11.2871
▁Cut	-11.2872
stay	-11.2873
Jin	-11.2874
▁growth	-11.2877
ENG	-11.2879
▁rid	-11.2881
▁Believe	-11.2883
💐	-11.2883
▁competition	-11.2887
▁Rest	-11.2888
▁workout	-11.2889
twitter	-11.2891
▁tv	-11.2892
▁despite	-11.2892
▁Doing	-11.2893
Cav	-11.2897
seo	-11.2897
▁celebrating	-11.2898
▁FULL	-11.2899
Yu	-11.29
ANA	-11.2903
Humor	-11.2903
😠	-11.2906
last	-11.2906
▁Saudi	-11.2907
▁Shut	-11.2907
HY	-11.2909
Juice	-11.291
Dub	-11.2911
lemon	-11.2911
lag	-11.2913
▁Close	-11.2914
joon	-11.2917
urban	-11.2919
▁Wars	-11.2919
mPLUS	-11.2921
▁Whatever	-11.2921
▁baseball	-11.2923
wait	-11.2926
▁discuss	-11.2927
▁Public	-11.2929
▁spell	-11.293
▁Japanese	-11.2932
Hoe	-11.2934
KI	-11.2934
▁magic	-11.2936
▁Feeling	-11.2937
▁cutie	-11.2937
soompi	-11.2938
vel	-11.2942
Long	-11.2943
▁Wayne	-11.2946
Diamond	-11.2947
AAA	-11.295
Shan	-11.2952
▁Catch	-11.2954
▁silent	-11.2957
▁Cross	-11.2957
▁master	-11.2958
narry	-11.2958
❣	-11.2958
dress	-11.2962
horn	-11.2962
▁Asian	-11.2963
▁Wonder	-11.2964
▁honey	-11.2964
▁stronger	-11.2966
WeAre	-11.2968
Dogs	-11.297
See	-11.2972
mx	-11.2974
Hate	-11.2975
▁FA	-11.2975
cake	-11.2976
ads	-11.2979
▁Interview	-11.2979
▁PC	-11.298
camilacabello	-11.2982
Cabello	-11.2985
cow	-11.2985
▁clown	-11.299
Traffic	-11.2991
▁colour	-11.2991
think	-11.2991
sean	-11.2992
Feed	-11.2993
END	-11.2996
▁Syria	-11.2997
▁commercial	-11.2999
BLACKPINK	-11.2999
Celeb	-11.3
Capital	-11.3002
▁tune	-11.3003
Robert	-11.3003
EP	-11.3004
BJP	-11.3005
ato	-11.3005
Pic	-11.3007
▁faster	-11.3007
Carl	-11.3008
india	-11.3009
people	-11.3011
table	-11.3013
▁sports	-11.3014
Rio	-11.3015
lik	-11.3016
5,000	-11.3019
Fam	-11.302
▁Ring	-11.3022
▁friendly	-11.3027
▁HARRY	-11.3029
▁Ice	-11.3029
▁Winter	-11.3031
Bur	-11.3031
▁universe	-11.3031
Leg	-11.3034
jewelry	-11.3035
Andre	-11.3035
bow	-11.3035
▁everytime	-11.3037
CD	-11.3044
NICKIMINAJ	-11.3046
Damn	-11.3048
GP	-11.3048
bucks	-11.3051
Bull	-11.3053
song	-11.3056
Ren	-11.3056
ore	-11.3056
▁PRE	-11.3056
💏	-11.3061
lle	-11.3061
▁fw	-11.3061
rang	-11.3062
Celtic	-11.3062
▁flat	-11.3062
▁Ways	-11.3063
▁Travel	-11.3064
Bruce	-11.3065
▁cops	-11.3066
Shah	-11.3068
Cum	-11.307
▁Jungkook	-11.3071
MAR	-11.3072
WorIdStar	-11.3073
▁Kardashian	-11.3073
rid	-11.3073
▁Pan	-11.3075
▁EX	-11.3077
Swift	-11.3079
Les	-11.3081
▁400	-11.3082
ante	-11.3083
▁Blood	-11.3084
bz	-11.3086
LG	-11.3086
▁Sexy	-11.3087
CAP	-11.309
LESS	-11.3092
ا	-11.3096
🎵	-11.3096
▁Walk	-11.3097
Zi	-11.3097
iana	-11.3097
▁BEAUTIFUL	-11.3099
OUT	-11.3099
▁NIGHT	-11.3103
imo	-11.3104
☑	-11.3105
▁depression	-11.3105
Police	-11.3109
Az	-11.3111
yne	-11.3111
SY	-11.3113
ency	-11.3115
Group	-11.3116
▁semester	-11.3117
NYT	-11.3119
▁tend	-11.312
▁quarter	-11.3122
▁Smart	-11.3122
▁Classic	-11.3122
jake	-11.3124
ched	-11.3126
Photography	-11.3127
fur	-11.3127
aku	-11.313
▁Four	-11.3131
iee	-11.3132
▁basic	-11.3133
uf	-11.3133
▁platform	-11.3134
horan	-11.3136
▁Son	-11.314
▁flying	-11.314
inn	-11.3141
dat	-11.3143
▁Gun	-11.3144
hon	-11.3146
Rush	-11.3147
tips	-11.3149
▁suppose	-11.3151
▁Tim	-11.3152
▁Remix	-11.3153
Mia	-11.3155
927	-11.3155
bomb	-11.3156
▁Canadian	-11.3159
kind	-11.3162
LV	-11.3165
stand	-11.3166
jah	-11.3166
▁emoji	-11.3168
▁ocean	-11.3172
sung	-11.3172
DOM	-11.3173
▁relax	-11.3178
Five	-11.3178
Funko	-11.3181
▁DEAD	-11.3183
▁Month	-11.3186
inthe	-11.3192
Jared	-11.3199
Pal	-11.3201
Pur	-11.3205
RR	-11.3206
President	-11.3211
eau	-11.3214
▁Labour	-11.3214
▁pleasure	-11.3215
tree	-11.3216
▁scenes	-11.3218
foot	-11.3218
Pee	-11.3218
▁Fans	-11.322
Amanda	-11.3222
▁lookin	-11.3222
katie	-11.3223
Blow	-11.3225
▁closet	-11.3227
▁GIVEAWAY	-11.3227
eff	-11.3227
▁Record	-11.3228
▁gender	-11.3233
▁replace	-11.3233
▁speaks	-11.3234
▁THEIR	-11.3235
▁hahahaha	-11.3239
▁shine	-11.3243
▁climate	-11.3244
INE	-11.3245
▁lesbian	-11.3246
▁donate	-11.3248
▁chest	-11.3249
HipHop	-11.325
・	-11.325
JS	-11.3252
▁FAN	-11.3255
👎	-11.3256
▁cancelled	-11.3257
▁deleted	-11.3258
ouch	-11.3259
Israel	-11.3259
▁Deal	-11.326
HAN	-11.3262
Cho	-11.3263
▁crew	-11.3264
Jong	-11.3265
ayo	-11.3266
▁Ur	-11.3268
emp	-11.3271
▁limit	-11.3274
demi	-11.3274
▁aww	-11.3274
LC	-11.3274
chick	-11.3277
Kin	-11.3277
▁Sub	-11.3279
abs	-11.328
gain	-11.328
▁Leo	-11.3283
▁GAME	-11.3284
ule	-11.3291
pool	-11.3293
sim	-11.3294
▁thick	-11.3295
gt	-11.3295
▁terrorist	-11.3295
Mos	-11.3296
KCAPinoySta	-11.3298
▁Jimin	-11.3303
▁thousand	-11.3304
wine	-11.3304
DL	-11.3305
loop	-11.3305
▁Were	-11.3306
wl	-11.3307
Find	-11.3308
▁gettin	-11.3309
JO	-11.331
iro	-11.3311
ema	-11.3313
mie	-11.3314
▁Bout	-11.3315
ury	-11.3316
▁planned	-11.3317
▁2000	-11.3318
▁bump	-11.3318
ians	-11.332
▁wine	-11.3321
Duke	-11.3321
▁status	-11.3323
▁Guide	-11.3327
hunter	-11.3328
Nate	-11.3333
Billy	-11.3335
▁Children	-11.3336
▁Sounds	-11.3336
▁HELL	-11.3339
▁christmas	-11.3339
ume	-11.3339
Gemini	-11.3341
Solo	-11.3341
▁Makes	-11.3341
▁Lots	-11.3342
▁AF	-11.3342
▁tiny	-11.3344
Eat	-11.3344
Ten	-11.3344
pc	-11.3347
Howard	-11.3348
Ger	-11.3349
USE	-11.335
Challenge	-11.335
ln	-11.3352
▁Double	-11.3352
Sydney	-11.3353
YE	-11.3355
▁omfg	-11.3355
fil	-11.3355
Crow	-11.3357
▁fingers	-11.3362
▁Ban	-11.3363
dela	-11.3364
erin	-11.3364
osa	-11.3365
sport	-11.3365
sher	-11.3366
lat	-11.3366
UberFacts	-11.3368
Tiger	-11.3369
▁island	-11.337
vor	-11.3373
dies	-11.3376
▁Sale	-11.3376
▁caring	-11.3377
camp	-11.3377
▁aw	-11.3378
Source	-11.3379
roo	-11.338
▁DIS	-11.3382
▁Digital	-11.3382
ICE	-11.3383
monday	-11.3383
Pete	-11.3385
▁OMFG	-11.3387
Gray	-11.3388
Bru	-11.3388
iva	-11.3389
cb	-11.3389
Direct	-11.3389
▁Stock	-11.3391
Makeup	-11.3394
▁noise	-11.3396
▁laws	-11.3396
kes	-11.3397
UG	-11.3398
meet	-11.3399
700	-11.3399
▁rep	-11.34
▁jacket	-11.34
▁Winner	-11.3403
Bir	-11.3404
▁sight	-11.3405
Rat	-11.3405
▁pride	-11.3406
▁civil	-11.341
ail	-11.3416
AY	-11.342
▁equal	-11.3421
LES	-11.3421
BALL	-11.3421
Alexis	-11.3422
▁OFFICIAL	-11.3423
fee	-11.3424
woman	-11.3428
이	-11.3428
▁Church	-11.3429
Rain	-11.343
▁Working	-11.3433
Uncle	-11.3434
▁Mon	-11.3435
€	-11.3437
▁TWITTER	-11.3444
▁tip	-11.3444
itch	-11.3445
Ob	-11.3447
▁improve	-11.3447
ili	-11.3448
▁lived	-11.3448
Box	-11.3449
Rebel	-11.3449
▁Dance	-11.3449
▁Kavanaugh	-11.345
▁Press	-11.345
wind	-11.3452
Disney	-11.3453
Loyal	-11.3453
▁anime	-11.3454
Bomb	-11.3456
▁distance	-11.3456
Iran	-11.346
Wal	-11.3461
aldenrichards	-11.3462
WS	-11.3463
ising	-11.3463
IND	-11.3464
lla	-11.3465
👼	-11.3471
▁Heat	-11.3471
▁tall	-11.3472
Africa	-11.3473
Some	-11.3473
snow	-11.3474
cover	-11.3474
▁Katy	-11.3474
Lane	-11.3476
Twit	-11.3477
nsfw	-11.3477
etta	-11.3484
▁fellow	-11.3484
Always	-11.3486
ras	-11.3488
maker	-11.3489
▁pink	-11.349
fel	-11.349
rome	-11.3494
lish	-11.3497
▁WH	-11.3501
jm	-11.3501
▁mentioned	-11.3506
romance	-11.3507
▁checking	-11.3509
paw	-11.3509
social	-11.3509
Storm	-11.351
shire	-11.3513
▁Security	-11.3515
cie	-11.3516
ega	-11.352
Es	-11.3524
Friend	-11.3525
make	-11.3526
ws	-11.3527
▁Stone	-11.3528
hra	-11.3529
▁Word	-11.3529
▁1/2	-11.353
competition	-11.3531
▁attacked	-11.3532
▁Hill	-11.3533
VR	-11.3534
Beast	-11.3537
▁moms	-11.3542
▁budget	-11.3542
▁Days	-11.3542
lines	-11.3543
Most	-11.3544
GT	-11.3548
▁switch	-11.3549
▁Easy	-11.3549
▁hating	-11.3552
insta	-11.3553
▁Thought	-11.3554
champ	-11.3556
Hart	-11.3556
dium	-11.356
▁accused	-11.3562
worth	-11.3564
kids	-11.3565
▁Isn	-11.3565
Famous	-11.3565
▁Senior	-11.3566
thats	-11.3567
▁Huge	-11.3571
╮	-11.3572
inc	-11.3573
Male	-11.3575
adore	-11.3576
▁upcoming	-11.3577
XX	-11.3577
▁DONE	-11.3577
▁several	-11.3582
▁Hemmings	-11.3585
Seth	-11.3586
Born	-11.3588
▁Hotel	-11.359
▁Nope	-11.359
london	-11.3594
▁represent	-11.3596
▁Islam	-11.3596
▁Dark	-11.3598
BF	-11.3599
kevin	-11.36
pass	-11.36
uza	-11.3605
ANT	-11.3606
▁laughed	-11.3607
america	-11.3607
LIT	-11.3608
▁escape	-11.3608
▁Chief	-11.3611
▁glasses	-11.3611
wig	-11.3613
Marcus	-11.3614
kur	-11.3616
bia	-11.3616
Ace	-11.3618
Peace	-11.3619
BER	-11.3622
Word	-11.3626
▁Hopefully	-11.3629
▁THEN	-11.3629
▁Behind	-11.3631
💩	-11.3631
▁Taking	-11.3631
▁Round	-11.3632
iron	-11.3634
▁knowledge	-11.3638
Fitness	-11.3639
▁connect	-11.3641
▁Constitution	-11.3645
▁Project	-11.3645
▁LETS	-11.3647
▁influence	-11.3647
ummy	-11.3647
▁Bay	-11.3648
bling	-11.3648
▁Soon	-11.3648
worthy	-11.3649
900	-11.3649
wish	-11.365
▁slept	-11.3653
Mill	-11.3653
▁Premier	-11.3654
▁officer	-11.3655
magazine	-11.3657
magic	-11.3663
▁Fri	-11.3664
▁mutuals	-11.3664
IP	-11.3667
▁idol	-11.3668
▁chair	-11.3669
Boom	-11.367
▁dudes	-11.367
GC	-11.3672
👯	-11.3672
▁Feat	-11.3672
▁tl	-11.3673
Selfie	-11.3674
CW	-11.3675
Jerry	-11.3676
Cash	-11.3678
▁groups	-11.3679
mani	-11.3681
▁SOMEONE	-11.3682
andi	-11.3682
▁Imma	-11.3683
▁anyways	-11.3683
aba	-11.3684
Doll	-11.3685
HC	-11.3686
▁sigh	-11.3688
Tommy	-11.3688
WH	-11.3691
illy	-11.3696
Jewelry	-11.3697
Mitch	-11.3698
nis	-11.3699
oon	-11.3703
Craig	-11.3703
▁FL	-11.3704
▁safety	-11.3704
Pen	-11.3704
Loves	-11.3706
▁WANNA	-11.3707
▁ship	-11.3709
coo	-11.3712
▁fill	-11.3712
ItsFoodPorn	-11.3713
dic	-11.3715
Discount	-11.3716
ome	-11.3718
gro	-11.3718
jeff	-11.3719
jc	-11.372
abo	-11.3721
▁sec	-11.3722
snake	-11.3723
▁creative	-11.3723
LINE	-11.3724
▁bread	-11.3725
Devil	-11.3728
▁HQ	-11.3728
lake	-11.3728
uch	-11.3729
▁Ver	-11.373
GIF	-11.3732
tivity	-11.3732
Omar	-11.3732
▁lesson	-11.3732
MH	-11.3733
Sl	-11.3733
▁Yep	-11.3734
▁regard	-11.3734
att	-11.3735
▁24/7	-11.3738
model	-11.3738
▁indeed	-11.3739
▁answers	-11.3739
Stuff	-11.3739
▁SAME	-11.3743
▁prices	-11.3743
Author	-11.3743
▁Trans	-11.3744
▁Daniel	-11.3744
ics	-11.3745
▁During	-11.3746
Str	-11.3746
Southern	-11.3747
▁deliver	-11.3748
yoongi	-11.3749
Final	-11.3749
▁soccer	-11.3749
▁firm	-11.3756
▁alarm	-11.3759
Bra	-11.3759
Julia	-11.3762
▁36	-11.3762
instarati	-11.3763
▁humble	-11.3766
uhh	-11.3769
Mat	-11.3772
Zach	-11.3773
▁dollar	-11.3773
▁Jones	-11.3777
▁Forever	-11.3781
Asia	-11.3783
▁miles	-11.3786
Parker	-11.3786
▁confidence	-11.3786
crew	-11.3787
▁jersey	-11.3787
▁NEXT	-11.3789
▁Lee	-11.379
followme	-11.3791
DES	-11.3791
faith	-11.3795
▁BAD	-11.3796
▁defeat	-11.3797
Eagles	-11.3798
mz	-11.3799
sassy	-11.3801
▁stressed	-11.3802
▁Sales	-11.3803
▁terror	-11.3804
mina	-11.3805
▁flip	-11.3806
ufc	-11.3806
Cant	-11.3807
paper	-11.3808
sehun	-11.3811
insan	-11.3812
▁CAR	-11.3813
▁Sir	-11.3814
▁awards	-11.3816
share	-11.3816
aly	-11.3817
sleep	-11.3817
Vic	-11.3818
RAN	-11.3818
dae	-11.3819
yes	-11.382
▁chief	-11.3821
▁YO	-11.3821
dragon	-11.3822
▁joined	-11.3823
▁nope	-11.3824
JP	-11.3824
▁decisions	-11.3824
illo	-11.3825
110	-11.3826
▁Nike	-11.3826
Edge	-11.3827
▁Boston	-11.3828
▁citizens	-11.3831
▁HOME	-11.3834
KC	-11.3836
▁gross	-11.3836
SOSFam	-11.3838
2000	-11.3839
▁passing	-11.384
EAT	-11.384
▁THING	-11.384
▁Mean	-11.3841
Collins	-11.3841
▁settle	-11.3842
▁Data	-11.3844
STER	-11.3844
▁ALBUM	-11.3845
▁fruit	-11.3846
▁Band	-11.3846
selfie	-11.3846
leo	-11.385
Michelle	-11.3852
▁Sea	-11.3852
Spirit	-11.3854
2020	-11.3857
banks	-11.3858
Kha	-11.3862
mut	-11.3864
▁cont	-11.3864
EB	-11.3864
Mega	-11.3865
domin	-11.3869
▁officials	-11.3869
Street	-11.387
even	-11.3872
▁grew	-11.3874
hur	-11.3875
Yes	-11.3876
▁stunning	-11.3877
Amazing	-11.3879
Keith	-11.3879
☝	-11.388
▁federal	-11.388
KK	-11.3881
JIN	-11.3885
Two	-11.3886
▁Matt	-11.3887
dean	-11.3889
bol	-11.3889
wire	-11.3889
▁Low	-11.389
NEWS	-11.389
oi	-11.389
nin	-11.3891
asa	-11.3892
▁Text	-11.3892
Bu	-11.3897
▁TRUMP	-11.3897
bank	-11.3897
store	-11.3898
NU	-11.3901
bha	-11.3903
▁injured	-11.3905
oul	-11.3907
meme	-11.3908
brace	-11.3909
▁Room	-11.391
chem	-11.3914
ttt	-11.3916
inson	-11.3917
Swag	-11.3917
▁patient	-11.3918
▁Step	-11.3919
▁approach	-11.3921
▁medical	-11.3921
coll	-11.3925
▁remove	-11.3926
▁GA	-11.3927
fle	-11.3933
▁Tae	-11.3933
zan	-11.3934
enge	-11.3935
Sk	-11.3935
▁annoyed	-11.3936
▁appear	-11.3939
▁Festival	-11.3942
▁achieve	-11.3943
comp	-11.3945
▁nominee	-11.3947
DF	-11.3947
▁puppy	-11.3948
cul	-11.395
Reality	-11.395
▁skip	-11.3953
Mai	-11.3954
CY	-11.3958
Neil	-11.396
▁desperate	-11.396
MK	-11.3961
Crush	-11.3962
info	-11.3962
▁Iran	-11.3962
▁fully	-11.3964
DNC	-11.3966
johnson	-11.3966
TAN	-11.3966
Af	-11.3967
▁director	-11.397
nell	-11.3973
RAY	-11.3975
Christian	-11.3978
JC	-11.3982
🌀	-11.3982
gucci	-11.3983
Mall	-11.3984
robot	-11.3984
Obama	-11.3985
▁Glass	-11.3986
▁contest	-11.3989
▁Vintage	-11.3989
▁Late	-11.3989
tive	-11.399
Mama	-11.3992
EVER	-11.3992
says	-11.3994
107	-11.3994
NHS	-11.3995
▁enjoyed	-11.3995
▁possibly	-11.3996
▁DC	-11.3997
Buck	-11.3999
▁Comey	-11.4
Cloud	-11.4
▁Attack	-11.4001
▁Samsung	-11.4001
▁Ke	-11.4001
▁transfer	-11.4003
▁yrs	-11.4003
🍑	-11.4005
lib	-11.4007
▁covered	-11.4007
ACT	-11.4008
▁Xbox	-11.4009
Hy	-11.4013
FollowMe	-11.4014
Oz	-11.4019
sham	-11.4022
Lost	-11.4024
▁Eat	-11.4024
▁Reply	-11.4026
Keep	-11.4029
▁Available	-11.4031
▁Coldplay	-11.4034
dec	-11.4035
Look	-11.4035
Travis	-11.4035
why	-11.4036
crazy	-11.4036
▁NIGGA	-11.4037
EY	-11.4038
ART	-11.4039
▁flow	-11.404
▁Ni	-11.4043
▁mentions	-11.4045
XL	-11.4045
▁scream	-11.405
sty	-11.405
vegan	-11.4051
cess	-11.4052
▁Sure	-11.4052
Susan	-11.4052
▁guard	-11.4053
BH	-11.4054
morgan	-11.406
▁praise	-11.4061
▁Cute	-11.4063
Chill	-11.4063
▁MADE	-11.4063
Alt	-11.4064
oil	-11.4065
Banks	-11.4066
TION	-11.4067
▁kitchen	-11.4067
tele	-11.4068
Female	-11.4069
🔵	-11.407
Harvey	-11.407
WC	-11.407
dun	-11.4071
wang	-11.4072
▁JabberDuck	-11.4073
▁hip	-11.4075
▁Angeles	-11.4075
Ran	-11.4076
bt	-11.4076
Water	-11.4077
Speaker	-11.4078
▁mentally	-11.4081
Gen	-11.4081
Proud	-11.4082
Fal	-11.4084
FemaleText	-11.4086
▁Camera	-11.4088
---	-11.4089
iddle	-11.4091
cx	-11.4095
kyle	-11.4096
Invest	-11.4097
247	-11.4099
Woman	-11.4099
bitcoin	-11.41
▁owner	-11.4101
rip	-11.4101
▁wings	-11.4101
▁Jin	-11.4102
▁Yet	-11.4102
▁usual	-11.4103
Rip	-11.4103
Libra	-11.4103
rig	-11.4103
ofthe	-11.4104
▁Kobe	-11.4105
▁DVD	-11.4107
Tip	-11.4108
🐾	-11.4109
cj	-11.411
Golden	-11.411
▁sugar	-11.4114
radiodisney	-11.4115
quin	-11.4115
▁balls	-11.4116
Dear	-11.4119
dz	-11.4124
Ser	-11.4124
silver	-11.4125
dani	-11.4127
▁returns	-11.4128
▁economic	-11.4129
about	-11.413
etti	-11.413
▁Lost	-11.4134
fro	-11.4135
Camp	-11.4137
▁warning	-11.4138
hub	-11.4138
rachel	-11.4138
Extra	-11.4141
color	-11.4142
▁chase	-11.4143
HI	-11.4144
▁Battle	-11.4144
Ge	-11.4145
▁header	-11.4146
Shu	-11.4146
MPN	-11.4147
▁tape	-11.4149
ident	-11.4149
▁BETTER	-11.4151
BD	-11.4154
Showtime	-11.4154
▁Self	-11.4155
Deep	-11.4157
JacobWhitesides	-11.4158
TRU	-11.4158
CIA	-11.4159
ending	-11.416
YOUNG	-11.4162
gem	-11.4162
▁Line	-11.4165
iri	-11.4165
▁schools	-11.4166
▁spoke	-11.4167
▁ruined	-11.4169
Yahoo	-11.417
GMA	-11.417
▁location	-11.4172
▁sisters	-11.4173
▁appreciated	-11.4175
Epic	-11.4175
ast	-11.4178
▁killer	-11.4178
tale	-11.4181
Megan	-11.4181
▁JUSTIN	-11.4181
▁boost	-11.4183
wit	-11.4184
▁bowl	-11.4187
ssy	-11.4188
Tho	-11.4188
mai	-11.4189
author	-11.419
▁stole	-11.419
mph	-11.4191
Sum	-11.4191
Philip	-11.4196
▁PS	-11.4196
Digital	-11.4198
▁Ohio	-11.4198
▁belong	-11.4199
▁ANY	-11.42
kun	-11.4201
TL	-11.4202
Learn	-11.4204
Lab	-11.4209
▁flowers	-11.4209
iko	-11.421
stream	-11.4213
Read	-11.4214
Johnny	-11.4215
ame	-11.4215
IR	-11.4216
RON	-11.4216
▁Merry	-11.4217
clothing	-11.4219
ines	-11.4224
▁midnight	-11.4225
▁winners	-11.4225
8/	-11.4226
Phoenix	-11.4227
mama	-11.4227
Idol	-11.4227
▁beating	-11.4228
▁blessings	-11.4228
▁Sky	-11.4229
mug	-11.423
▁glass	-11.423
ith	-11.4232
▁2020	-11.4233
calum	-11.4233
korea	-11.4233
▁complaining	-11.4235
▁QB	-11.4236
▁zone	-11.4239
▁walks	-11.4242
union	-11.4243
want	-11.4245
GIRL	-11.4247
▁owe	-11.4249
▁development	-11.4249
GraysonDolan	-11.425
Smash	-11.425
▁Ford	-11.4251
lust	-11.4252
porno	-11.4252
▁solid	-11.4253
lau	-11.4256
sid	-11.4256
Nigeria	-11.4259
▁trial	-11.4259
▁OKAY	-11.426
Pan	-11.4261
tics	-11.4263
RG	-11.4263
▁decent	-11.4263
ordered	-11.4265
united	-11.4266
▁Gomez	-11.4267
Central	-11.4267
Bird	-11.4267
PAR	-11.427
OW	-11.4273
VS	-11.4274
▁prevent	-11.4275
edge	-11.4275
Relatable	-11.4276
bubble	-11.4278
Rewards	-11.4278
uuuu	-11.4281
first	-11.4283
▁charged	-11.4283
Kindle	-11.4284
▁TWO	-11.4285
Brooklyn	-11.4285
▁EP	-11.4285
▁Gay	-11.4286
dez	-11.4286
iKON	-11.4289
Kill	-11.4291
▁momma	-11.4292
▁Cyrus	-11.4296
Again	-11.4297
eo	-11.4298
coin	-11.4299
sunday	-11.4301
Goal	-11.4302
Titan	-11.4303
michelle	-11.4305
BY	-11.4307
▁Tag	-11.4308
▁Bush	-11.4308
▁37	-11.4309
▁prob	-11.431
mash	-11.431
ely	-11.431
Golf	-11.4311
lp	-11.4315
ved	-11.4316
sav	-11.4317
great	-11.4317
Ticket	-11.4318
DG	-11.4322
def	-11.4322
Madison	-11.4324
▁FINALLY	-11.4324
▁Protect	-11.4326
hel	-11.4329
▁ourselves	-11.4329
Lucky	-11.433
▁finds	-11.4332
somehow	-11.4333
lovely	-11.4334
bola	-11.4334
▁VERY	-11.4335
▁coverage	-11.4337
▁beats	-11.4338
hell	-11.434
▁meme	-11.4342
▁Messi	-11.4345
▁comfort	-11.4345
▁administration	-11.4346
Nas	-11.4347
▁Je	-11.4348
Nadine	-11.4351
Drunk	-11.4353
aunt	-11.4354
LB	-11.4355
Alyssa	-11.4357
▁suspect	-11.436
nas	-11.4361
ien	-11.4361
had	-11.4362
▁indirect	-11.4362
น	-11.4363
▁survive	-11.4363
▁Stand	-11.4364
Ji	-11.4368
PU	-11.4372
tun	-11.4373
▁Kelly	-11.4374
ido	-11.4375
open	-11.4376
▁embarrassing	-11.4377
Brit	-11.4378
friend	-11.4378
▁Inter	-11.4381
miller	-11.4382
▁childhood	-11.4384
▁multi	-11.4385
ASAP	-11.4386
Nintendo	-11.4386
▁Number	-11.4387
apple	-11.4388
▁spin	-11.4389
Hai	-11.4389
▁Dallas	-11.4391
▁Nigerian	-11.4392
RING	-11.4392
▁Ends	-11.4393
▁BC	-11.4394
KN	-11.4396
▁Thinking	-11.4397
nel	-11.4398
▁Proud	-11.4399
▁Democrat	-11.44
▁Prime	-11.4401
stin	-11.4403
▁aware	-11.4403
williams	-11.4408
▁Quick	-11.441
ife	-11.4411
▁Spread	-11.4411
▁elected	-11.4413
▁reminds	-11.4414
▁replies	-11.4414
/1	-11.4415
🍻	-11.4416
vibes	-11.4417
▁chose	-11.4418
102	-11.4418
mh	-11.4418
▁iOS	-11.4419
chie	-11.4419
agan	-11.4422
▁Mad	-11.4423
aver	-11.4426
Perfect	-11.4427
TEAMFOLLOWBACK	-11.443
▁Forget	-11.4432
amanda	-11.4433
▁feature	-11.4433
▁terms	-11.4435
HP	-11.4436
Vin	-11.4437
suit	-11.4439
Aint	-11.4441
▁fraud	-11.4441
▁majority	-11.4442
Nathan	-11.4443
NK	-11.4444
▁talkin	-11.4444
Wall	-11.4444
Healthy	-11.4444
Nor	-11.4447
Stats	-11.4447
need	-11.4447
Indian	-11.4448
Sy	-11.4449
_3	-11.4449
Hack	-11.445
Crime	-11.4451
▁Wild	-11.4451
pho	-11.4453
Kennedy	-11.4453
ush	-11.4455
Beliebers	-11.4456
ago	-11.4457
Magazine	-11.4458
lone	-11.4458
mack	-11.4458
▁mode	-11.4459
▁TELL	-11.4459
nnnn	-11.4459
Stone	-11.4461
▁proper	-11.4462
▁Iggy	-11.4464
▁@9	-11.4465
vintage	-11.4467
rating	-11.4469
hab	-11.4469
▁Bus	-11.4472
Evil	-11.4472
Launch	-11.4473
Hay	-11.4473
RealJamesWoods	-11.4474
JaiBrooks	-11.4474
Charles	-11.4474
halsey	-11.4475
▁Ft	-11.4476
Mobile	-11.4479
Astro	-11.4481
Wood	-11.4482
▁isnt	-11.4484
Pay	-11.4485
Dun	-11.4487
▁Peace	-11.4488
▁Scotland	-11.4488
serv	-11.4489
ook	-11.449
taylorswift	-11.4491
▁tongue	-11.4491
▁PHOTO	-11.4492
Wo	-11.4492
▁kisses	-11.4492
writing	-11.4492
asi	-11.4492
▁Teacher	-11.4492
▁Wife	-11.4492
▁Ko	-11.4494
mun	-11.4496
Choose	-11.4498
EV	-11.4498
MMM	-11.4498
▁similar	-11.4501
▁convo	-11.4502
jai	-11.4503
▁strike	-11.4503
megan	-11.4505
cash	-11.4505
Ag	-11.4506
Jade	-11.4507
▁Apparently	-11.4507
AIR	-11.4508
Donald	-11.4512
ghan	-11.4513
▁rough	-11.4513
▁desire	-11.4514
pel	-11.4515
Rice	-11.4515
▁Early	-11.4517
where	-11.4518
IF	-11.4518
lift	-11.4518
Gate	-11.4518
rank	-11.4521
freak	-11.4523
shawty	-11.4523
plan	-11.4523
▁toilet	-11.4523
▁wave	-11.4524
Museum	-11.4525
shark	-11.4526
▁shared	-11.4527
▁personally	-11.4528
▁completed	-11.4528
▁Simple	-11.453
▁Saw	-11.453
Genius	-11.4531
▁print	-11.4532
▁giveaway	-11.4533
▁Bob	-11.4534
ich	-11.4534
Tiffany	-11.4535
▁abortion	-11.4536
rh	-11.4538
lt	-11.4538
sti	-11.454
▁System	-11.4541
Agent	-11.4544
pies	-11.4545
▁ILY	-11.4546
nova	-11.4547
▁younger	-11.4547
📸	-11.4548
CHA	-11.4551
nigga	-11.4554
JM	-11.4554
gray	-11.4554
▁HEY	-11.4556
Truck	-11.4557
▁MO	-11.4559
CF	-11.456
▁Side	-11.4562
rib	-11.4563
dash	-11.4563
WSJ	-11.4563
▁yr	-11.4564
Scorpio	-11.4565
Kingdom	-11.4565
▄	-11.4565
perf	-11.4565
▁hundred	-11.4566
guardian	-11.4566
gang	-11.4566
▁forces	-11.4566
plain	-11.4568
culture	-11.4568
Doc	-11.4568
final	-11.4569
▁material	-11.4569
▁Exclusive	-11.4569
▁jeans	-11.457
bunny	-11.457
Meet	-11.4575
▁nature	-11.4576
Wine	-11.4577
▁smiles	-11.4577
Muslim	-11.4577
hv	-11.4579
▁Design	-11.458
austin	-11.4589
Fool	-11.459
Guru	-11.4592
▁committed	-11.4593
fam	-11.4594
▁Child	-11.4594
FREE	-11.4595
Smart	-11.4595
Six	-11.4596
ching	-11.4596
buck	-11.4596
aged	-11.4598
▁dies	-11.4598
👐	-11.4599
sOf	-11.4602
▁0.0	-11.4604
jackson	-11.4605
tori	-11.4605
▁responsible	-11.4607
▁setting	-11.4607
▁Las	-11.4608
ROCK	-11.4608
▁Jim	-11.4608
kick	-11.4609
▁Stories	-11.4613
ilove	-11.4614
beau	-11.4615
Honor	-11.4616
💤	-11.4617
KISS	-11.4619
▁Land	-11.4621
Nancy	-11.4623
▁meat	-11.4623
Wise	-11.4624
ering	-11.4624
Point	-11.4624
Road	-11.4625
His	-11.4625
Cab	-11.4626
▁prepared	-11.4626
▁deserved	-11.4628
fine	-11.4629
NR	-11.4631
▁Blog	-11.4631
vibe	-11.4633
Scot	-11.4636
▁grades	-11.4636
AAP	-11.4637
NER	-11.4638
▁bike	-11.4638
iiii	-11.4639
╗	-11.4641
▁SHOULD	-11.4641
erson	-11.4643
OB	-11.4646
Dreams	-11.4647
▁Missing	-11.4649
Booty	-11.465
🙇	-11.4651
▁suffer	-11.4653
Universe	-11.4653
sec	-11.4654
▁edition	-11.4654
Wit	-11.4654
▁exact	-11.4655
▁List	-11.4656
▁humans	-11.4656
▁Airport	-11.4658
tian	-11.4658
vert	-11.4658
bir	-11.466
▁inspiration	-11.4661
▁plate	-11.4662
▁hugs	-11.4663
Ven	-11.4664
LaurenJauregui	-11.4665
Pac	-11.4666
▁75	-11.4668
hir	-11.4669
Cl	-11.4673
coming	-11.4676
▁Frank	-11.4677
▁confident	-11.4679
racing	-11.4679
tat	-11.468
ose	-11.4681
▁sport	-11.4683
goat	-11.4683
DIY	-11.4685
dah	-11.4687
OTWOL	-11.4687
▁Jr	-11.4691
▁Cruz	-11.4691
kal	-11.4692
▁depressed	-11.4693
▁2011	-11.4693
▁Italy	-11.4694
▁Amen	-11.4694
Pure	-11.4695
▁Until	-11.4697
Bros	-11.4697
ij	-11.4697
Line	-11.4698
kir	-11.4698
speak	-11.4698
▁Bag	-11.4698
▁headline	-11.4698
ient	-11.4701
fort	-11.4701
Draft	-11.4701
abe	-11.4701
▁Democratic	-11.4702
rot	-11.4704
Cats	-11.4705
🌎	-11.4706
cab	-11.4707
▁Wedding	-11.4707
▁Master	-11.4707
bf	-11.4708
▁circle	-11.4709
Hood	-11.4709
▁rip	-11.471
▁clock	-11.471
Thor	-11.4712
▁hurting	-11.4712
Dumb	-11.4713
Evans	-11.4713
Million	-11.4714
▁jam	-11.4714
fold	-11.4715
Pak	-11.4715
anal	-11.4716
mod	-11.4716
TD	-11.4716
▁haters	-11.4716
▁Jenner	-11.4719
WORIDSTARHIPH	-11.4721
Ol	-11.4721
grave	-11.4721
Purple	-11.4724
Bernie	-11.4728
▁Alright	-11.4728
bil	-11.4729
▁Kit	-11.473
▁Wo	-11.4733
story	-11.4735
Zero	-11.4736
Wear	-11.4738
shu	-11.4739
▁SC	-11.4742
Kel	-11.4744
▁strange	-11.4746
nash	-11.4746
Chu	-11.4747
Charlotte	-11.4748
Chloe	-11.4748
lz	-11.4749
zing	-11.475
seokjin	-11.475
🚀	-11.4751
bud	-11.4751
▁Guy	-11.4754
Cry	-11.4756
Tea	-11.4756
lax	-11.4757
EthanDolan	-11.4758
▁lock	-11.4758
Future	-11.4759
JU	-11.476
▁Stephen	-11.4763
▁Kylie	-11.4764
Grant	-11.4765
▁genuinely	-11.4766
')	-11.4767
thomas	-11.4769
ood	-11.4769
▁moral	-11.4771
royal	-11.4772
Shay	-11.4772
▁south	-11.4776
aar	-11.4777
mins	-11.4781
Row	-11.4781
grande	-11.4784
jesus	-11.4786
hd	-11.4786
▁obvious	-11.4787
Rapper	-11.4789
▁FACE	-11.4791
▁WORK	-11.4794
Dallas	-11.4794
Brett	-11.4794
Animals	-11.4795
bul	-11.4799
bum	-11.4799
science	-11.4803
▁liking	-11.4806
▁Match	-11.4807
ically	-11.4808
kt	-11.481
▁Through	-11.4811
3000	-11.4811
▁Santa	-11.4813
▁toxic	-11.4816
҉	-11.4817
abby	-11.4818
▁ghost	-11.4818
▁Govt	-11.4821
▁featuring	-11.4821
gum	-11.4823
Corp	-11.4824
walker	-11.4824
Indie	-11.4824
Silver	-11.4825
alan	-11.4826
ress	-11.4826
▁oomf	-11.4828
rude	-11.4828
vern	-11.483
▁Force	-11.4831
Pelosi	-11.4831
▁meal	-11.4832
▁para	-11.4835
azz	-11.4835
Tips	-11.4835
Thunder	-11.4836
┃	-11.4838
action	-11.4841
Message	-11.4842
Hilarious	-11.4842
▁Move	-11.4844
▁posts	-11.4846
▁Using	-11.4847
CJ	-11.4847
JI	-11.4848
า	-11.4849
cry	-11.4849
cant	-11.4849
TF	-11.4851
▁stands	-11.4852
RADIO	-11.4853
dri	-11.4853
ako	-11.4853
▁dawg	-11.4856
TG	-11.4856
▁Female	-11.4857
kas	-11.4858
▁adventure	-11.4863
▁harveste	-11.4863
▁preview	-11.4863
force	-11.4864
▁Union	-11.4868
▁separate	-11.487
ANI	-11.4873
▁silly	-11.4873
▁Weekend	-11.4878
Lucas	-11.4879
Rising	-11.488
▁arrest	-11.488
hhhhh	-11.4881
arguing	-11.4881
Ap	-11.4881
Bin	-11.4885
being	-11.4885
Era	-11.4886
ister	-11.4888
ZE	-11.4891
ential	-11.4895
👭	-11.4895
▁effect	-11.4896
▁finals	-11.4896
uka	-11.4897
Morning	-11.4897
▁worldwide	-11.49
▁Wood	-11.4901
yon	-11.4901
FACT	-11.4902
Give	-11.4904
immer	-11.4906
charts	-11.4906
obi	-11.4907
Gorgeous	-11.4909
crib	-11.4909
▁Country	-11.491
nature	-11.4911
▁doin	-11.4912
Cy	-11.4913
slim	-11.4914
Shark	-11.4914
anni	-11.4914
bourne	-11.4914
problems	-11.4914
aq	-11.4915
▁TM	-11.4915
🤤	-11.4916
CHO	-11.4916
Stephen	-11.4917
Evan	-11.4918
▁immigration	-11.492
▁murdered	-11.4922
▁uncle	-11.4923
ellie	-11.4923
bree	-11.4924
Swa	-11.4925
Culture	-11.4927
expecting	-11.4927
▁boobs	-11.4927
▁Haven	-11.4927
rm	-11.4928
How	-11.493
▁AFTER	-11.493
Turn	-11.4932
▁PLAY	-11.4932
▁passion	-11.4933
Bor	-11.4934
NL	-11.4938
▁MI	-11.4941
Was	-11.4942
lyric	-11.4945
hear	-11.4948
WORLD	-11.4948
▁Used	-11.4949
lips	-11.495
2.5	-11.4951
▁praying	-11.4951
UC	-11.4954
awa	-11.4954
Speed	-11.4955
nch	-11.4956
dg	-11.4956
matic	-11.4958
▁Jose	-11.4958
🇮	-11.4958
▁compare	-11.4959
▁FB	-11.496
▁chances	-11.496
Planet	-11.4961
▁prayer	-11.4961
Palestinian	-11.4962
ridge	-11.4962
Last	-11.4964
burg	-11.4965
▁perfectly	-11.4965
nj	-11.4965
▁throat	-11.4967
BIG	-11.4969
▁singer	-11.4971
Carr	-11.4971
Champion	-11.4971
▁benefit	-11.4972
▁MISS	-11.4973
▁map	-11.4976
▁Went	-11.4976
analytics	-11.4976
▁Wrong	-11.4976
IAM	-11.4977
🤧	-11.498
▁benefits	-11.498
Republic	-11.4981
▁promote	-11.4982
Think	-11.4985
▁Golden	-11.4985
Bank	-11.4986
Papa	-11.4986
▁Yesterday	-11.4987
▁Gar	-11.4987
served	-11.4988
mid	-11.499
BECAUSE	-11.499
▁premiere	-11.499
uber	-11.499
▁subject	-11.4991
NewYork	-11.4991
cult	-11.4991
▁pieces	-11.4991
▁justin	-11.4992
Arab	-11.4992
▁Camp	-11.4993
▁devil	-11.4994
aja	-11.4994
▁yay	-11.4994
▁Age	-11.4998
GRA	-11.5001
▁1,000	-11.5001
▁WEEK	-11.5002
▁Cost	-11.5003
Patriot	-11.5003
IO	-11.5004
Cody	-11.5006
▁elections	-11.5007
▁princess	-11.5009
tta	-11.5015
▁Collection	-11.5016
Wendy	-11.5016
▁opens	-11.5017
inner	-11.5017
▁bang	-11.5018
Id	-11.502
Cut	-11.502
YOU	-11.5021
▁hoseok	-11.5021
▁joining	-11.5022
▁riding	-11.5023
dea	-11.5025
ars	-11.5025
▁Wake	-11.5026
▁Instead	-11.5028
shay	-11.5029
▁taxes	-11.5031
Kor	-11.5031
▁Cap	-11.5032
Murray	-11.5032
▁promo	-11.5034
Ricky	-11.5034
wash	-11.5036
▁unique	-11.5038
▁saves	-11.5039
▁mall	-11.5041
Places	-11.5042
history	-11.5043
Spo	-11.5043
JackJohnson	-11.5045
▁lord	-11.5045
coat	-11.5048
▁parts	-11.5048
NATION	-11.5048
bab	-11.5048
▁TRANS	-11.505
▁Vine	-11.5051
▁wrap	-11.5051
aria	-11.5053
graph	-11.5053
▁Moon	-11.5057
▁pup	-11.5059
google	-11.5062
hem	-11.5064
▁parent	-11.5068
▁bust	-11.5068
▁Space	-11.5068
▁neither	-11.5069
hawk	-11.5069
things	-11.5071
Pot	-11.5071
▁laptop	-11.5073
Molly	-11.5077
tl	-11.5079
disney	-11.5081
Levi	-11.5082
lk	-11.5082
laura	-11.5083
▁badly	-11.5083
Hand	-11.5083
▁Stick	-11.5084
haa	-11.5086
▁According	-11.5087
▁emails	-11.5089
Os	-11.5089
OK	-11.509
hail	-11.509
Den	-11.5095
sum	-11.5095
tis	-11.5096
Beats	-11.5097
Gill	-11.5097
Harris	-11.5097
Come	-11.5099
aries	-11.5099
̄	-11.5101
tric	-11.5102
Moore	-11.5102
▁banned	-11.5102
ologist	-11.5102
tus	-11.5103
▁dramatic	-11.5104
Pearl	-11.5108
Records	-11.511
ape	-11.5113
▁Roll	-11.5113
🌍	-11.5116
Terry	-11.5117
▁Necklace	-11.5119
rush	-11.5119
netflix	-11.5119
▁Store	-11.5123
😶	-11.5123
Random	-11.5124
▁Five	-11.5124
Spin	-11.5126
View	-11.5126
▁HOLY	-11.513
inter	-11.5131
▁AP	-11.5132
Marco	-11.5133
ico	-11.5133
▁READY	-11.5136
Captain	-11.5139
ELL	-11.514
DT	-11.514
Beck	-11.514
LIGHT	-11.5141
KR	-11.5142
mak	-11.5142
hs	-11.5144
bull	-11.5145
Pant	-11.5146
▁bull	-11.5146
▁wi	-11.5147
Wat	-11.5149
Jus	-11.5153
wk	-11.5153
▁loose	-11.5155
🇦	-11.5159
Chad	-11.516
Beyond	-11.5163
Foreign	-11.5163
106	-11.5165
▁degree	-11.5166
ABLE	-11.5168
▁discovered	-11.517
NB	-11.5171
▁Answer	-11.5171
▁theweather	-11.5172
▁Die	-11.5172
carter	-11.5173
istry	-11.5174
▁homeless	-11.5174
Fab	-11.5175
▁THAN	-11.5176
▁injury	-11.5177
Drug	-11.5178
beck	-11.5178
Kan	-11.5179
zee	-11.5179
jean	-11.5181
oooooo	-11.5183
zzle	-11.5183
Jonathan	-11.5185
▁2010	-11.5185
▁realise	-11.5186
WT	-11.5186
fighter	-11.5187
blo	-11.5188
Ber	-11.5188
Julian	-11.5189
TP	-11.5189
saint	-11.5189
NOT	-11.519
╬	-11.5192
Dance	-11.5193
chloe	-11.5194
╱	-11.5195
OU	-11.5199
999	-11.5199
▁hiding	-11.52
chip	-11.5203
▁treatment	-11.5207
Well	-11.5207
hale	-11.5208
▁swing	-11.5209
▁ear	-11.5212
Liberal	-11.5214
▁announcement	-11.5214
Kam	-11.5217
▁Interesting	-11.5218
Cre	-11.5223
▁Board	-11.5224
Body	-11.5225
▁spree	-11.5225
flow	-11.5225
Ugly	-11.5228
OOOO	-11.5229
yard	-11.5233
ius	-11.5233
▁conversations	-11.5235
▁Rick	-11.5235
naa	-11.5235
Mixtape	-11.5236
mf	-11.5236
▁customer	-11.524
▁display	-11.5242
▁Goodmorning	-11.5242
iAm	-11.5244
eun	-11.5244
Chuck	-11.5245
▁ears	-11.5247
Mun	-11.5247
fresh	-11.5248
▁related	-11.5248
▁cats	-11.525
▁exchange	-11.5251
▁manage	-11.5254
Logan	-11.5255
mommy	-11.5255
▁giant	-11.5256
▁Building	-11.5259
▁shy	-11.526
Sugar	-11.5261
▁cuts	-11.5263
two	-11.5266
▁luv	-11.5268
▁Excited	-11.5268
cook	-11.5269
motion	-11.5269
▁financial	-11.527
Elite	-11.5272
Karen	-11.5273
eno	-11.5273
Baker	-11.5273
▁Cop	-11.5275
▁invited	-11.5276
▁kissing	-11.5277
Side	-11.5277
Let	-11.5279
cio	-11.5281
malik	-11.5282
▁guest	-11.5283
▁Hat	-11.5285
▁sink	-11.5287
Trust	-11.5289
OOO	-11.5289
Sho	-11.5289
cord	-11.529
▁Eye	-11.5291
Cr	-11.5291
aaron	-11.5293
▁behavior	-11.5294
funder	-11.5297
▁enemy	-11.5298
hoes	-11.5299
Design	-11.53
celeb	-11.53
▁Job	-11.53
temp	-11.5302
etic	-11.5303
ahhh	-11.5305
Fanuen	-11.5306
Pope	-11.5307
Luis	-11.5307
▁testing	-11.5308
BigDog	-11.5308
Ferguson	-11.5309
Chelsea	-11.5309
Nikki	-11.5309
▁Van	-11.531
▁Gen	-11.5312
▁Cat	-11.5314
pound	-11.5315
Athlete	-11.5316
milf	-11.5317
Drama	-11.532
▁petition	-11.532
▁Tony	-11.532
Gordon	-11.5321
▁Fresh	-11.5322
ISH	-11.5322
person	-11.5322
hari	-11.5323
nay	-11.5323
▁lines	-11.5324
pas	-11.5326
collect	-11.5326
ota	-11.5329
Speak	-11.5329
▁prize	-11.5329
cop	-11.5329
Grey	-11.5329
laying	-11.533
ggg	-11.5331
NN	-11.5331
▁falls	-11.5333
Batman	-11.5337
Four	-11.5338
▁genius	-11.5338
Flo	-11.5338
pilot	-11.5339
LOG	-11.5339
TIC	-11.5339
▁Town	-11.5341
▁agreed	-11.5342
posi	-11.5344
Adrian	-11.5346
▁strip	-11.5348
😰	-11.5349
boom	-11.535
▁colors	-11.5352
▁WERE	-11.5353
▁creating	-11.5353
Mix	-11.5354
ect	-11.5354
belle	-11.5355
France	-11.5356
ember	-11.5356
▁Film	-11.5358
▁published	-11.5358
Hol	-11.5359
Cameron	-11.5361
▁gif	-11.5361
▁notifications	-11.5364
▁pla	-11.5364
MSNBC	-11.5365
VER	-11.5366
FX	-11.5368
xi	-11.5368
Mart	-11.5369
▁discussion	-11.5369
▁HA	-11.5369
nig	-11.537
▁Ronaldo	-11.537
▁nowhere	-11.5371
Anderson	-11.5371
▁Ku	-11.5372
▁happier	-11.5372
listenli	-11.5372
▁skinny	-11.5372
Competition	-11.5375
Gil	-11.5376
NEW	-11.5376
pod	-11.5379
Charlie	-11.5382
Trey	-11.5383
Believe	-11.5383
▁Paper	-11.5387
▁epic	-11.5387
Antonio	-11.5387
▁sneak	-11.5389
Soo	-11.5389
▁dey	-11.5391
▁namjoon	-11.54
▁Def	-11.5406
▁debt	-11.5407
▁candy	-11.5407
Cruz	-11.5407
IES	-11.5408
▁humidity	-11.5408
PSY	-11.5409
▁highly	-11.5409
pear	-11.5409
▁seek	-11.5409
pill	-11.541
▁earn	-11.5412
อ	-11.5412
ي	-11.5412
Mah	-11.5414
▁Shout	-11.5414
gut	-11.5415
Derek	-11.5416
vv	-11.542
▁Own	-11.5421
▁Oil	-11.5421
­	-11.5423
Kra	-11.5425
▁Pe	-11.5427
Hamilton	-11.5427
Thug	-11.5429
erra	-11.5431
▁hurry	-11.5431
🇹	-11.5434
▁costs	-11.5436
CON	-11.5436
rent	-11.5439
coco	-11.5439
Lea	-11.544
▁concerned	-11.5441
selenagomez	-11.5442
▁definition	-11.5442
▁HAD	-11.5442
▁mostly	-11.5442
▁understanding	-11.5445
▁Austin	-11.5446
▁kicked	-11.5447
liv	-11.5447
BarackObama	-11.5449
EAR	-11.5453
Hor	-11.5453
Shadow	-11.5454
▁juice	-11.5455
Hug	-11.5455
Dragon	-11.5457
▁Jimmy	-11.5459
▁GIRLS	-11.546
▁heads	-11.5461
gina	-11.5465
dell	-11.5467
▁fed	-11.5468
⛄	-11.5468
▁Fair	-11.547
amazon	-11.5471
▁Georgia	-11.5472
lost	-11.5473
TweetLikeAGirI	-11.5475
▁balance	-11.5477
▁promised	-11.5478
Len	-11.5478
🐱	-11.5479
▁picking	-11.5479
▁product	-11.548
six	-11.5481
Wish	-11.5481
▁orange	-11.5481
ific	-11.5482
Trend	-11.5483
stcountry	-11.5485
▁Champions	-11.5486
considered	-11.5486
shes	-11.5486
Jeremy	-11.5486
truck	-11.5487
▁hmm	-11.5489
Hun	-11.549
kam	-11.5492
Pin	-11.5493
Adams	-11.5493
▁Sen	-11.5494
▁pushing	-11.5494
omo	-11.5495
Modi	-11.5499
Lex	-11.55
izer	-11.5501
▁BOYS	-11.5501
ular	-11.5501
▁250	-11.5502
▁paint	-11.5503
▁Straight	-11.5504
door	-11.5504
Watson	-11.5508
▁rapper	-11.551
Metro	-11.5511
forthemo	-11.5515
▁Michigan	-11.5518
lum	-11.552
Dor	-11.552
▁audience	-11.552
lime	-11.5522
▁actor	-11.5522
site	-11.5523
9.99	-11.5523
Mirror	-11.5524
Nelson	-11.5524
Julie	-11.5525
POP	-11.5526
▁encourage	-11.5527
▁disagree	-11.5528
group	-11.553
Season	-11.553
Jose	-11.5531
plus	-11.5533
Der	-11.5534
diver	-11.5534
▁Funny	-11.5535
▁harm	-11.5535
▁SALE	-11.5535
Papi	-11.5536
Classic	-11.5538
▁fu	-11.5538
▁creep	-11.5543
▁ASAP	-11.5543
▁cards	-11.5544
▁BEAUTY	-11.5547
▁BOY	-11.5547
Wu	-11.5547
Strong	-11.5548
Shake	-11.5549
Noah	-11.5549
rim	-11.5553
Russ	-11.5553
They	-11.5554
103	-11.5554
Victoria	-11.5555
▁Jeff	-11.5556
▁Mars	-11.5557
Pad	-11.5561
Kardashian	-11.5561
Inc	-11.5561
Coin	-11.5561
Geek	-11.5562
▁Pull	-11.5563
▁gunna	-11.5564
keep	-11.5564
Stu	-11.5566
▁prepare	-11.5568
acc	-11.5568
gur	-11.5569
▁advantage	-11.5569
kitten	-11.557
tell	-11.5572
Avi	-11.5572
🖕	-11.5573
success	-11.5573
Metal	-11.5574
▁1.	-11.5576
suga	-11.5576
tube	-11.5578
Justice	-11.558
ushi	-11.5583
▁hehe	-11.5583
Wings	-11.5585
Anti	-11.5588
▁shocked	-11.5588
Fran	-11.559
▁Woo	-11.559
UL	-11.559
Dani	-11.5591
vac	-11.5593
christ	-11.5594
ohh	-11.5596
Kenny	-11.5596
Lawrence	-11.5596
🎸	-11.5599
Kind	-11.5602
dai	-11.5603
▁staring	-11.5604
Has	-11.5605
▁privilege	-11.5607
gaming	-11.5607
▁Model	-11.5608
Beach	-11.5608
IoT	-11.5609
▁hook	-11.561
gift	-11.561
▁Search	-11.561
▁140	-11.561
▁Definitely	-11.5611
👾	-11.5611
▁auto	-11.5611
crown	-11.5611
▁surgery	-11.5611
▁49	-11.5612
Lucy	-11.5613
▁Den	-11.5614
🇵	-11.5615
▁nudes	-11.5616
bio	-11.5616
SEA	-11.5617
▁cheated	-11.5617
▁loan	-11.562
american	-11.5621
EMA	-11.5624
ici	-11.5626
bass	-11.5627
FG	-11.5628
Zoo	-11.563
▁notes	-11.5631
▁Starbucks	-11.5633
Thailand	-11.5634
Chief	-11.5634
gre	-11.5634
ject	-11.5635
barb	-11.5636
tract	-11.5637
▁leadership	-11.5637
▁teaching	-11.5641
▁Stream	-11.5641
🌼	-11.5641
▁Aug	-11.5642
Melissa	-11.5642
▁Middle	-11.5642
Aquarius	-11.5644
Coast	-11.5645
😮	-11.5645
╚	-11.5649
broad	-11.5649
eez	-11.565
Andrea	-11.5651
👸	-11.5652
▁discount	-11.5653
▁package	-11.5654
Beer	-11.5654
400	-11.5657
flood	-11.5658
holy	-11.5659
▁SE	-11.5659
▁twist	-11.566
entrepreneur	-11.566
YOURSELF	-11.5661
crea	-11.5662
_4	-11.5664
▁Touch	-11.5666
jason	-11.5669
▁corrupt	-11.5671
spice	-11.5672
▁Chocolate	-11.5673
▁Teen	-11.5673
unk	-11.5675
opp	-11.5676
trill	-11.5676
▁plot	-11.5676
than	-11.568
▁studying	-11.568
Nut	-11.5681
ope	-11.5681
▁hates	-11.5684
RAP	-11.5684
▁pathetic	-11.5687
Adventure	-11.5687
▁Acc	-11.5687
▁Create	-11.5688
hana	-11.569
▁golf	-11.5691
most	-11.5691
road	-11.5692
twerk	-11.5692
Bet	-11.5694
╔	-11.5694
⬇	-11.5694
WO	-11.5695
rihanna	-11.5698
Connor	-11.5698
achi	-11.5698
▁Yay	-11.5699
▁offers	-11.57
future	-11.5701
Youth	-11.5701
txt	-11.5703
▁Poor	-11.5705
tia	-11.5707
▁ignored	-11.571
▁drinks	-11.571
▁zero	-11.571
WAY	-11.5711
▁Clifford	-11.5715
▁flash	-11.5716
▁intelligence	-11.5718
▁cities	-11.572
mitchellvi	-11.5722
▁highlight	-11.5722
▁Reasons	-11.5725
gb	-11.5726
▁Stars	-11.5726
DK	-11.5731
▁scandal	-11.5731
▁heading	-11.5735
▁LOT	-11.5736
▁cunt	-11.5738
Political	-11.5738
▁minister	-11.5739
Wire	-11.574
▁socks	-11.574
Candy	-11.574
amateur	-11.574
▁march	-11.5741
Fail	-11.5741
▁eyebrows	-11.5745
yg	-11.5746
▁graduate	-11.5747
▁Worst	-11.5747
Russia	-11.5748
YO	-11.5748
iHeartRadio	-11.5748
Holly	-11.575
▁apple	-11.575
gl	-11.5752
▁stans	-11.5753
▁Less	-11.5754
▁users	-11.5755
▁Credit	-11.5756
▁democracy	-11.5759
BREAKING	-11.5759
Sc	-11.5759
▁YEARS	-11.5761
azi	-11.5762
▁shorts	-11.5762
Cohen	-11.5768
Lets	-11.5769
Selena	-11.5769
Horse	-11.577
ios	-11.5771
💭	-11.5771
games	-11.5772
IX	-11.5772
Access	-11.5773
▁Build	-11.5774
IGN	-11.5775
lc	-11.5777
▁charges	-11.5777
exp	-11.5778
▁vibe	-11.5779
▁Israeli	-11.578
▁wat	-11.5781
Swan	-11.5782
▁updated	-11.5782
alexis	-11.5783
JAY	-11.5783
▁photograph	-11.5784
Bean	-11.5786
Fake	-11.5786
▁funeral	-11.5787
Memes	-11.5788
▁Tired	-11.5789
Year	-11.5793
keeper	-11.5795
twit	-11.5796
TOR	-11.5797
🤪	-11.5798
Montana	-11.58
gurl	-11.58
▁Bra	-11.5801
▁damage	-11.5802
pump	-11.5803
Jessie	-11.5805
Karl	-11.5806
🚶	-11.5806
Hurricane	-11.5806
phan	-11.5808
▁stayed	-11.5813
▁eventually	-11.5814
IBM	-11.5815
kra	-11.5815
Beth	-11.5817
kah	-11.5817
eller	-11.5819
▁cutting	-11.5819
whisper	-11.5821
BEAT	-11.5823
date	-11.5824
Jas	-11.5825
Buhari	-11.5826
▁types	-11.5827
blood	-11.5827
▁Alabama	-11.5829
rit	-11.583
PG	-11.5831
Mann	-11.5832
▁Mi	-11.5835
WINNER	-11.5838
lewis	-11.5838
▁Yup	-11.584
▁bird	-11.584
nude	-11.584
easy	-11.5841
lig	-11.5843
College	-11.5844
▁THATS	-11.5844
▁romantic	-11.5845
▁Seeing	-11.5848
▁loyalty	-11.5848
Yammouni	-11.5848
Cur	-11.5849
Olivia	-11.5849
dil	-11.5852
▁Military	-11.5852
▁PERFECT	-11.5852
Nazi	-11.5853
ump	-11.5854
market	-11.5856
small	-11.5856
btsvotingteam	-11.5856
hug	-11.5857
Serv	-11.586
JUNGKOOK	-11.586
▁mobile	-11.5862
▁38	-11.5863
▁depend	-11.5866
lx	-11.5867
Mario	-11.5868
KU	-11.5868
▁Australian	-11.5868
▁eight	-11.5868
▁Living	-11.5869
Kayla	-11.587
Doug	-11.5871
mountain	-11.5872
tone	-11.5873
Slay	-11.5873
▁Far	-11.5876
▁condition	-11.5876
Laugh	-11.5878
Vibes	-11.5878
still	-11.5879
Contest	-11.588
▁Feb	-11.5881
Dad	-11.5883
▁Aw	-11.5887
Society	-11.5887
🎓	-11.5887
🎼	-11.5887
Ah	-11.5889
▁physical	-11.5889
350	-11.5891
▁uses	-11.5892
▁declare	-11.5892
▁BUY	-11.5892
▁Starting	-11.5893
pants	-11.5894
bea	-11.5895
DEN	-11.5896
Dia	-11.5896
trans	-11.5896
Cyber	-11.5898
▁otherwise	-11.5899
zza	-11.5901
base	-11.5901
Child	-11.5901
Hearts	-11.5902
iza	-11.5903
▁Point	-11.5903
bald	-11.5903
Chef	-11.5904
uli	-11.5905
▁Alex	-11.5905
Share	-11.5905
Strange	-11.5905
▁burning	-11.5906
▁youth	-11.5907
▁cooking	-11.5908
Follows	-11.5908
CAT	-11.5909
Every	-11.591
anon	-11.5911
▁YA	-11.5912
Hits	-11.5914
▁scores	-11.5916
🐯	-11.5918
aught	-11.5918
▁funding	-11.5919
▁label	-11.5923
▁DAYS	-11.5924
▁author	-11.5925
Kitty	-11.5926
Sel	-11.5926
▁removed	-11.5927
sai	-11.5927
BP	-11.5928
LAN	-11.5929
▁reporting	-11.5929
▁Pill	-11.5929
Shoot	-11.5931
▁Parents	-11.5932
Ruth	-11.5933
▁Temp	-11.5933
udi	-11.5933
yeah	-11.5933
Miami	-11.5933
▁locked	-11.5934
alyssa	-11.5935
uke	-11.5936
NESS	-11.5938
▁Cole	-11.5939
goddess	-11.5939
mj	-11.5941
Tam	-11.5941
▁horny	-11.5942
Zo	-11.5942
▁caption	-11.5943
▁Galaxy	-11.5943
EF	-11.5944
rocket	-11.5945
spot	-11.5946
▁Atlanta	-11.5949
▁suffering	-11.5949
cred	-11.595
갓세븐	-11.595
Barbie	-11.595
Dick	-11.5951
▁Spain	-11.5951
121	-11.5951
chae	-11.5958
▁chain	-11.596
Bha	-11.596
▁Toronto	-11.5962
▁Johnny	-11.5964
▁LITERALLY	-11.5965
artist	-11.5966
Virgo	-11.5966
espn	-11.5967
Sab	-11.5968
central	-11.5969
arrow	-11.597
mee	-11.5971
juan	-11.5972
♻	-11.5973
▁anger	-11.5974
Audio	-11.5976
gree	-11.5976
▁wore	-11.5978
weight	-11.598
▁offense	-11.598
papi	-11.598
omi	-11.5981
Danger	-11.5981
Bryant	-11.5982
Kashmir	-11.5985
▁Cream	-11.5986
▁Question	-11.5986
active	-11.5986
THR	-11.5986
▁remix	-11.5986
Murphy	-11.5988
Bag	-11.5989
▁lifetime	-11.599
▁Bell	-11.5991
▁Syrian	-11.5992
▁Rap	-11.5993
wreck	-11.5993
▁recording	-11.5994
▁blonde	-11.5996
tab	-11.5998
Dae	-11.6
▁cough	-11.6
▁focused	-11.6001
Luna	-11.6001
▁headache	-11.6001
have	-11.6001
▁teaser	-11.6005
cliff	-11.6006
▁Libra	-11.6007
Greatest	-11.6007
Dawn	-11.6008
rx	-11.6008
_17	-11.601
▁listened	-11.6011
Mental	-11.6011
ui	-11.6011
duh	-11.6012
▁Complete	-11.6016
▁SCHOOL	-11.6017
▁hoodie	-11.6019
Billion	-11.6021
rus	-11.6022
hello	-11.6023
JH	-11.6024
Climate	-11.6025
▁exo	-11.6026
jessica	-11.6026
▁Aww	-11.6028
lace	-11.6028
cris	-11.6029
▁Port	-11.6029
▁HIGH	-11.603
▁CRY	-11.6031
▁Barcelona	-11.6031
UNC	-11.6032
▁Tax	-11.6032
ador	-11.6033
thin	-11.6034
doe	-11.6035
▁individual	-11.6038
Bug	-11.6038
arra	-11.6038
umi	-11.6039
cru	-11.6043
FW	-11.6044
CAM	-11.6047
▁Talking	-11.6047
nail	-11.6048
▁Carolina	-11.6048
143	-11.6048
pea	-11.6048
typical	-11.6049
kon	-11.6051
▁PROUD	-11.6053
▁Against	-11.6061
PET	-11.6063
▁lip	-11.6063
▁visual	-11.6065
▁records	-11.6069
Nic	-11.607
Fame	-11.6071
▁DREAM	-11.6072
▁Tri	-11.6072
Mail	-11.6072
▁largest	-11.6074
Notes	-11.6075
Ear	-11.6076
slave	-11.6076
▁pee	-11.6078
japan	-11.6078
▁revealed	-11.6081
cla	-11.6082
brad	-11.6082
▁Inside	-11.6084
▁Easter	-11.6085
CUT	-11.6086
▁upload	-11.6087
Under	-11.6088
▁Bae	-11.6089
▁Marketing	-11.609
sunny	-11.6091
onna	-11.6092
guard	-11.6092
Forced	-11.6093
amber	-11.6093
Edit	-11.6095
▁anytime	-11.6096
Lover	-11.6097
nde	-11.6097
count	-11.6098
Fav	-11.61
Must	-11.61
▁passes	-11.6101
Ev	-11.6102
Logic	-11.6103
Kh	-11.6103
Franklin	-11.6107
Gaza	-11.6107
Cra	-11.6108
deal	-11.6108
voice	-11.611
▁Respect	-11.611
Jimmy	-11.6111
▁DOING	-11.6111
peace	-11.6112
▁knee	-11.6112
▁ability	-11.6113
Aye	-11.6114
CallMe	-11.6116
Cook	-11.6117
Britt	-11.6118
Odd	-11.6118
Ng	-11.6119
Still	-11.612
▁Auto	-11.612
▁technology	-11.6121
▁campus	-11.6122
sil	-11.6123
🆘	-11.6124
▁boat	-11.6126
▁Note	-11.6128
drum	-11.6128
▁pretending	-11.6128
court	-11.6132
olivia	-11.6137
▁TURN	-11.6137
▁smash	-11.6138
Grind	-11.6139
Info	-11.6139
Breaking	-11.6141
ded	-11.6141
Cass	-11.6147
▁Nick	-11.6148
Liberty	-11.6148
YS	-11.6149
▁hood	-11.6153
Cubs	-11.6153
▁gifts	-11.6154
▁dem	-11.6155
✧	-11.6156
▁lemme	-11.6156
bullet	-11.6156
BLE	-11.6156
▁delicious	-11.6156
Luck	-11.6161
Human	-11.6161
▁politicians	-11.6162
▁wo	-11.6163
thir	-11.6163
▁cancel	-11.6163
▁Championship	-11.6164
pain	-11.6164
▁swim	-11.6164
isi	-11.6165
▁Delhi	-11.6165
▁Incredible	-11.6165
InThe	-11.6166
▁Walking	-11.617
writers	-11.6171
booty	-11.6172
nda	-11.6173
▁Ireland	-11.6175
Short	-11.6176
ryn	-11.6176
Horan	-11.6176
▁Relationship	-11.6177
BernieSanders	-11.618
Cheer	-11.6182
Tai	-11.6183
➤	-11.6184
Ukraine	-11.6184
Bailey	-11.6184
▁Em	-11.6185
Fall	-11.6187
tiny	-11.6187
PLE	-11.6188
Jer	-11.6188
papa	-11.6189
YU	-11.619
▁ALERT	-11.6192
chef	-11.6193
▁seats	-11.6194
▁POST	-11.6196
▁Jersey	-11.6199
▁function	-11.62
Wright	-11.62
TAE	-11.6202
▁invest	-11.6202
▁gr	-11.6203
anthony	-11.6203
▁Bur	-11.6204
Bas	-11.6205
yaa	-11.6207
▁purchase	-11.6208
Uber	-11.621
ITE	-11.621
rri	-11.6211
Destiny	-11.6211
Crack	-11.6212
▁Preview	-11.6214
🐝	-11.6216
Content	-11.622
simon	-11.6221
Base	-11.6222
Nasty	-11.6224
rel	-11.6226
▁Temperature	-11.6228
hang	-11.6228
Mont	-11.6231
Bron	-11.6232
▁Shipping	-11.6233
jee	-11.6235
▁Han	-11.6238
▁trynna	-11.6238
Carrie	-11.6239
irwin	-11.624
▁effective	-11.6241
▁define	-11.6241
Champ	-11.6247
▁patience	-11.6248
▁levels	-11.6251
▁essay	-11.6252
stance	-11.6252
Kenya	-11.6254
▁connection	-11.6254
ignoring	-11.6256
Farm	-11.6257
▁Virginia	-11.6259
RK	-11.6261
PRO	-11.6261
anger	-11.6263
▁SUPER	-11.6268
Joel	-11.6268
▁petty	-11.6269
▁Track	-11.6271
▁Kiss	-11.6272
Bun	-11.6274
▁greet	-11.6276
م	-11.6276
thro	-11.6278
Loo	-11.6279
Indonesia	-11.628
Mendes	-11.6281
▁ignorant	-11.6284
Next	-11.6286
chap	-11.6289
Chain	-11.6291
▁Spotify	-11.6291
fake	-11.6293
vice	-11.6295
sort	-11.6297
nnnnn	-11.6297
Chang	-11.6299
▁costume	-11.63
QUE	-11.63
GirI	-11.6301
▁agenda	-11.6301
▁yellow	-11.6303
Ninja	-11.6303
gent	-11.6304
Ros	-11.6306
math	-11.6306
▁semi	-11.6308
Rad	-11.6308
▁struggling	-11.6309
▁curious	-11.6309
arry	-11.6311
ered	-11.6311
▁Success	-11.6313
Score	-11.6316
tron	-11.6317
Triple	-11.6318
▁Microsoft	-11.6328
check	-11.6328
▁CHECK	-11.6329
erman	-11.6329
Foot	-11.6331
milk	-11.6331
kc	-11.6332
▁Main	-11.6332
▁cookies	-11.6335
add	-11.6336
fag	-11.6336
▁Block	-11.6336
▁Garden	-11.6337
▁Seems	-11.6339
paige	-11.634
▁excellent	-11.6341
▁gather	-11.6343
▁MOST	-11.6343
▁Worth	-11.6343
dallas	-11.6344
gga	-11.6345
▁Billboard	-11.6346
Bus	-11.6346
▁disease	-11.6347
legend	-11.6347
outs	-11.6347
▁sensitive	-11.6349
Vol	-11.635
reg	-11.6351
Colin	-11.6352
phi	-11.6353
▁sets	-11.6353
▁section	-11.6354
▁SCREAMING	-11.6354
▁Pen	-11.6355
chic	-11.6356
hus	-11.6356
brooke	-11.6356
mw	-11.6357
▁iPad	-11.636
uda	-11.636
teenager	-11.6361
Din	-11.6362
para	-11.6363
VAN	-11.6364
gio	-11.6364
atti	-11.6365
ugg	-11.6365
▁Although	-11.6366
▁Fed	-11.6366
notes	-11.6367
cyber	-11.6368
Marine	-11.637
▁attached	-11.637
▁sandwich	-11.637
▁Scorpio	-11.637
▁hop	-11.6371
taco	-11.6371
Lan	-11.6372
▁HAIR	-11.6376
yoga	-11.6377
Sur	-11.6377
JT	-11.6377
Stylish	-11.6378
Eddie	-11.6382
▁nightmare	-11.6382
▁shoe	-11.6383
SAN	-11.6383
▁Giving	-11.6383
Bey	-11.6384
qi	-11.6384
▁Turkey	-11.6386
Hook	-11.6387
Lynch	-11.6388
▁bills	-11.6388
Hat	-11.6389
▁Grab	-11.6389
shake	-11.639
▁necessary	-11.639
pul	-11.6391
▁remains	-11.6394
▁sacrifice	-11.6394
zar	-11.6395
Roll	-11.6396
trash	-11.6397
▁bite	-11.6397
fir	-11.6398
fre	-11.6398
luna	-11.6399
▁Snow	-11.64
neck	-11.64
lac	-11.64
▁duck	-11.6401
desk	-11.6401
🐰	-11.6403
▁secure	-11.6404
Ellen	-11.6404
▁Mine	-11.6404
▁Bitcoin	-11.6406
sharp	-11.6406
five	-11.6407
Rihanna	-11.6408
Milan	-11.641
meg	-11.6411
UND	-11.6412
Map	-11.6412
☾	-11.6415
Shaw	-11.6415
indie	-11.6415
Site	-11.6416
▁Jobs	-11.6416
Zu	-11.6417
▁custom	-11.6418
eyes	-11.6423
👣	-11.6427
Oliver	-11.6428
Cast	-11.6429
▁earned	-11.6431
SEVENTEEN	-11.6431
charliekirk	-11.6431
▁apartment	-11.6433
cookie	-11.6434
suck	-11.6436
Sim	-11.6436
Pack	-11.6437
Sol	-11.6439
▁shares	-11.6439
China	-11.6439
▁lane	-11.6439
600	-11.644
FAN	-11.6442
mmm	-11.6443
▁NOTHING	-11.6444
▁professor	-11.6444
Mid	-11.6446
Cheese	-11.6447
Cooper	-11.6447
▁Magic	-11.6448
Panda	-11.6448
bacon	-11.6449
callme	-11.645
ン	-11.6452
Track	-11.6453
MW	-11.6453
▁Bio	-11.6454
Rangers	-11.6454
StyleFashion	-11.6456
Vid	-11.6458
Lie	-11.6459
Ward	-11.6459
▁Uh	-11.646
▁10,000	-11.646
▁chapter	-11.6461
Mack	-11.6464
▁Burn	-11.6464
FunnyPicsDep	-11.6464
file	-11.6467
Cards	-11.6468
But	-11.6468
RIS	-11.6468
▁significant	-11.6468
▁MOM	-11.6471
Stories	-11.6474
tub	-11.6474
aru	-11.6474
▁NIALL	-11.6475
▁forgotten	-11.6476
▁Coast	-11.6477
selena	-11.6477
worker	-11.6478
crush	-11.6478
Nurse	-11.648
Fil	-11.6483
▁Wi	-11.6483
ick	-11.6485
yyyyy	-11.6485
save	-11.6485
150	-11.6486
dancer	-11.6487
▁Sessions	-11.6487
itive	-11.6489
dl	-11.6489
▁factor	-11.6489
Prof	-11.6491
OfThe	-11.6491
Pla	-11.6492
Villa	-11.6493
▁drag	-11.6493
KP	-11.6493
always	-11.6494
dogs	-11.6498
CN	-11.6499
Footy	-11.65
AOC	-11.65
▁Andrew	-11.6502
eta	-11.6503
Saints	-11.6504
Barry	-11.6504
iness	-11.6505
Sand	-11.6506
▁Games	-11.6506
junior	-11.6506
Alice	-11.6507
▁clue	-11.6508
nb	-11.6508
▁mixed	-11.6509
▁modern	-11.6511
yrs	-11.6512
▁limited	-11.6513
▁liberal	-11.6515
tine	-11.6516
▁fur	-11.6517
▁Jun	-11.6519
	-11.6522
review	-11.6522
▁vibes	-11.6524
hara	-11.6527
dish	-11.6528
▁hated	-11.6529
ucc	-11.653
Technology	-11.653
▁Concert	-11.6531
jal	-11.6531
som	-11.6532
gc	-11.6533
▁holds	-11.6534
▁compliment	-11.6534
▁Gone	-11.6535
report	-11.6536
Boston	-11.6538
▁wasted	-11.6539
Sad	-11.654
taylorcaniff	-11.6543
jose	-11.6546
iTunes	-11.6546
sion	-11.6548
QUI	-11.6548
▁mfs	-11.6549
▁grind	-11.6549
xox	-11.6549
baek	-11.655
105	-11.6551
▁destroyed	-11.6551
Kee	-11.6554
▁Details	-11.6554
LIL	-11.6555
Grim	-11.6555
allen	-11.6558
Die	-11.6559
▁Especially	-11.6559
▁Asia	-11.656
Broken	-11.656
Bone	-11.656
Qua	-11.656
▁Program	-11.6561
mobile	-11.6562
tuck	-11.6562
▁Charles	-11.6562
LGBT	-11.6563
VMA	-11.6563
▁Bed	-11.6564
rep	-11.6566
▁Bet	-11.6567
▁existence	-11.6569
▁Adult	-11.6571
Tor	-11.6573
▁spam	-11.6574
anu	-11.6574
bloggers	-11.6575
▁COMING	-11.6576
Leeds	-11.6578
▁advance	-11.6579
RAIN	-11.658
ゆう	-11.658
▁lmaoo	-11.6582
▁ASK	-11.6583
alien	-11.6584
▁savage	-11.6584
Toronto	-11.6584
BabyAnimalPics	-11.6585
▁Victoria	-11.6586
aus	-11.6586
they	-11.6587
Oregon	-11.6597
▁friday	-11.66
▁HAHA	-11.6601
mouth	-11.6602
Trailer	-11.6604
▁accepted	-11.6605
WAL	-11.6607
brew	-11.6609
riot	-11.6609
▁Print	-11.6609
wedding	-11.6609
fight	-11.661
Door	-11.6612
arian	-11.6612
▁entry	-11.6612
▁Action	-11.6613
▁commit	-11.6614
Utd	-11.6615
Guardian	-11.6616
EEE	-11.6618
▁stadium	-11.6618
lain	-11.6618
▁officers	-11.6619
itty	-11.6619
▁horror	-11.662
▁stare	-11.662
▁plenty	-11.6622
▁insurance	-11.6627
▁Reading	-11.6627
Ree	-11.6629
Patrick	-11.6629
Fast	-11.663
▁Barr	-11.6631
tiger	-11.6633
LAY	-11.6634
Podcast	-11.6635
▁Truth	-11.6636
Joshua	-11.6636
bd	-11.6637
▁STAY	-11.6637
▁Cold	-11.6637
aaaaaa	-11.664
▁wash	-11.664
▁laid	-11.6642
olly	-11.6643
▁painting	-11.6644
333	-11.6646
riz	-11.6648
Military	-11.6648
french	-11.665
savage	-11.6651
Fur	-11.6651
Rise	-11.6655
Lovely	-11.6657
▁BEING	-11.6657
HL	-11.6657
string	-11.6658
give	-11.6658
Awkward	-11.666
Victor	-11.666
bai	-11.6663
▁historic	-11.6663
_7	-11.6664
▁Secretary	-11.6665
metal	-11.6665
DER	-11.6666
BG	-11.6669
▁curse	-11.667
▁CALL	-11.667
▁Italian	-11.6672
▁creepy	-11.6673
Aid	-11.6674
▁bench	-11.6675
▁peak	-11.6675
kylegriffin	-11.6677
▁fixed	-11.6677
stars	-11.6678
UH	-11.6678
▁Du	-11.6679
Sw	-11.668
gor	-11.6682
Spec	-11.6683
boxing	-11.6684
▁garden	-11.6685
▁Non	-11.6688
oose	-11.6688
Chin	-11.6689
▁scam	-11.6689
Kendall	-11.6689
rainbow	-11.6689
▁disrespectful	-11.6691
Diet	-11.6691
Riley	-11.6692
▁Challenge	-11.6693
Deb	-11.6693
luc	-11.6694
Flex	-11.6695
bold	-11.6695
lean	-11.6696
andre	-11.6696
▁capital	-11.6697
dude	-11.6699
▁FRIDAY	-11.6699
tac	-11.6699
maine	-11.6702
jamie	-11.6702
▁Adam	-11.6702
▁facebook	-11.6703
▁rank	-11.6707
Zoe	-11.6707
MIT	-11.6707
▁Return	-11.6708
▁hole	-11.6709
dha	-11.6709
Gh	-11.671
▁corruption	-11.6711
writes	-11.6714
▁shipping	-11.6716
step	-11.6718
Shane	-11.6719
BrooksBeau	-11.6719
▁festival	-11.672
▁bond	-11.6721
Simpson	-11.6724
yana	-11.6724
egg	-11.6725
gary	-11.6727
Left	-11.6728
alerts	-11.6729
yong	-11.673
▁Bye	-11.673
ITS	-11.6731
Chip	-11.6734
Celebrity	-11.6736
▁Magazine	-11.6738
▁succeed	-11.674
▁Humidit	-11.674
yoon	-11.6742
FUCK	-11.6742
Bass	-11.6743
305	-11.6743
HM	-11.6743
▁lmaooo	-11.6743
1975	-11.6744
fucking	-11.6744
Grand	-11.6744
Brun	-11.6745
▁hint	-11.6745
carl	-11.6746
boobs	-11.6746
▁Azalea	-11.6749
▁incredibly	-11.6749
▁bags	-11.6749
▁tank	-11.675
secret	-11.6751
▁Everyday	-11.6752
tx	-11.6752
chop	-11.6753
sketch	-11.6753
▁Current	-11.6756
Lamar	-11.6757
▁filter	-11.6757
compared	-11.6757
Opinion	-11.6757
▁34	-11.6758
matthew	-11.6758
nr	-11.676
earth	-11.676
kj	-11.6762
▁parking	-11.6766
▁images	-11.6767
ups	-11.677
ways	-11.677
yx	-11.6773
▁Thanksgiving	-11.6773
▁Eric	-11.6773
haz	-11.6775
gene	-11.6781
Med	-11.6782
itt	-11.6782
▁exit	-11.6783
▁CARE	-11.6785
▁faithful	-11.6786
▁ICYMI	-11.6788
stats	-11.6789
Des	-11.6792
▁celebration	-11.6793
YY	-11.6796
Lies	-11.6796
▁broadcast	-11.6796
Dana	-11.6797
spy	-11.6799
deb	-11.6799
▁mission	-11.68
▁drake	-11.6801
▁smack	-11.6801
rocks	-11.6802
▁Ted	-11.6802
▁Sean	-11.6802
▁Page	-11.6803
rebel	-11.6803
▁Slow	-11.6803
▁lawyer	-11.6803
▁aid	-11.6804
▁TOUR	-11.6806
Tube	-11.6807
Had	-11.6807
brat	-11.6807
udge	-11.6807
iPad	-11.6808
Tap	-11.6808
Stewart	-11.6809
ddd	-11.681
SHINee	-11.6813
aay	-11.6814
▁recognize	-11.6816
▁granted	-11.6817
▁Person	-11.6818
▁Chill	-11.6818
▁doe	-11.6818
johnny	-11.682
Kitchen	-11.6821
▁Chart	-11.6822
Pakistan	-11.6823
Snow	-11.6824
▁Department	-11.6825
poll	-11.6827
▁Dick	-11.6827
▁beg	-11.683
river	-11.683
▁shown	-11.6833
▁Anything	-11.6834
Paige	-11.6834
Eminem	-11.6835
English	-11.6836
Sue	-11.6837
Tv	-11.6839
Loud	-11.684
OFC	-11.6842
allkpop	-11.6842
Ally	-11.6842
Intelligence	-11.6842
▁liar	-11.6844
▁COULD	-11.6848
▁dislike	-11.6848
FOUR	-11.6848
ppy	-11.6849
▁Author	-11.6851
▁serving	-11.6851
▁Host	-11.6852
▁Major	-11.6852
Scandal	-11.6855
1000	-11.6856
Brand	-11.6856
INA	-11.6858
sound	-11.686
Breakfast	-11.686
Xo	-11.686
Full	-11.6861
▁solution	-11.6861
▁randomly	-11.6861
▁panel	-11.6861
▁shooter	-11.6862
Milk	-11.6863
certainly	-11.6865
Von	-11.6866
Together	-11.6866
Carson	-11.6866
Lip	-11.6869
▁Prove	-11.687
Sup	-11.687
▁DIE	-11.687
Centre	-11.6871
Raven	-11.6871
FOR	-11.6871
mega	-11.6872
▁nut	-11.6872
Independent	-11.6872
▁headed	-11.6873
wap	-11.6874
gua	-11.6876
OOOOOO	-11.6879
illian	-11.6879
polar	-11.688
dx	-11.688
iggy	-11.6881
▁delay	-11.6882
▁gap	-11.6883
Tele	-11.6883
▁pips	-11.6883
Angela	-11.6883
▁shoulder	-11.6884
▁Took	-11.6884
Horror	-11.6885
Darren	-11.6886
owned	-11.6889
Ale	-11.689
Jar	-11.6894
▁Puerto	-11.6894
note	-11.6895
mum	-11.6896
Dawg	-11.6897
▁Officer	-11.6898
▁reference	-11.6899
muscle	-11.6899
ThankYou	-11.6899
After	-11.69
▁2009	-11.6901
Card	-11.6902
▁counter	-11.6904
▁degrees	-11.6904
▁Screen	-11.6905
Class	-11.6906
hut	-11.6906
▁tha	-11.6906
NING	-11.6907
Memories	-11.6907
dw	-11.6907
Aries	-11.6908
Math	-11.6909
MV	-11.691
▁carpet	-11.691
March	-11.6912
▁Focus	-11.6913
cd	-11.6918
OUR	-11.692
cricket	-11.692
oki	-11.6921
▁messed	-11.6922
chel	-11.6922
Troll	-11.6923
▁immigrants	-11.6923
▁Central	-11.6928
limit	-11.6928
Doe	-11.6928
╠	-11.6933
appears	-11.6934
▁Brain	-11.6934
▁kpop	-11.6936
Academy	-11.6936
⁦	-11.6937
▁catching	-11.6937
demo	-11.694
mous	-11.6941
KIM	-11.6942
Kirk	-11.6942
▁Potter	-11.6943
▁Science	-11.6943
dawn	-11.6944
Lay	-11.6944
Argentina	-11.6946
woods	-11.6949
luck	-11.695
Thi	-11.695
▁measure	-11.695
PTI	-11.6951
bing	-11.6953
Plus	-11.6953
▁explains	-11.6954
Rights	-11.6955
north	-11.6958
GTA	-11.6959
ente	-11.6959
Court	-11.6959
▁panic	-11.6962
▁Storm	-11.6962
▁albums	-11.6963
▁dumbass	-11.6963
insight	-11.6965
▁Aries	-11.6965
charm	-11.6966
wx	-11.6967
▁english	-11.6968
Finance	-11.6968
icon	-11.6969
▁Caught	-11.697
▁insult	-11.6971
bones	-11.6971
bles	-11.6971
▁Control	-11.6971
kle	-11.6971
LizQuen	-11.6972
Trans	-11.6973
▁YEAH	-11.6973
Matter	-11.6974
tical	-11.6974
▁mature	-11.6974
rish	-11.6975
ction	-11.6976
politics	-11.6977
Flor	-11.6978
▁throughout	-11.6979
▁route	-11.6981
▁Walmart	-11.6981
▁Warriors	-11.6981
TRA	-11.6983
Corn	-11.6983
lid	-11.6984
Office	-11.6984
Psych	-11.6985
😨	-11.6985
▁pen	-11.6985
▁offered	-11.6986
producer	-11.6986
▁Bridge	-11.6989
Creative	-11.6989
▁pulling	-11.699
▁Comment	-11.6993
Name	-11.6993
▁Cleveland	-11.6993
tit	-11.6993
Positive	-11.6994
Yankees	-11.6995
Problem	-11.6996
▁lessons	-11.6997
rack	-11.6998
ums	-11.7
▁wheel	-11.7
stack	-11.7001
▁Junior	-11.7002
father	-11.7002
▁river	-11.7002
▁Prod	-11.7002
Walk	-11.7003
Cas	-11.7003
Action	-11.7004
▁OPEN	-11.7004
▁Cast	-11.7005
uki	-11.7006
construct	-11.7009
blogger	-11.701
Channel	-11.7012
sci	-11.7014
British	-11.7015
spoken	-11.7015
ography	-11.7018
▁Company	-11.7018
▁exercise	-11.7019
Letter	-11.7021
Whi	-11.7021
▁regardless	-11.7021
never	-11.7022
▁Islamic	-11.7022
Dutch	-11.7022
Goddess	-11.7029
nak	-11.703
Capricorn	-11.703
Rand	-11.7031
▁ref	-11.7033
▁agent	-11.7033
beer	-11.7034
Houston	-11.7034
▁concern	-11.7035
feel	-11.7036
▁emergency	-11.7037
path	-11.7037
tum	-11.7038
Paradise	-11.7041
goals	-11.7041
▁tht	-11.7042
▁reward	-11.7043
▁Lebron	-11.7046
kash	-11.7047
▁split	-11.7047
text	-11.705
▁PART	-11.7051
noo	-11.7051
nurse	-11.7052
Nar	-11.7053
change	-11.7054
▁Yourself	-11.7055
shadow	-11.7057
▁Trailer	-11.7059
▁Conference	-11.7059
Qu	-11.706
▁Biggest	-11.7062
anny	-11.7063
▁painful	-11.7064
Talent	-11.7065
▁Virgo	-11.7065
BACK	-11.7065
Mis	-11.7065
▁FEEL	-11.7067
MER	-11.7067
TURE	-11.7068
Draw	-11.707
▁shoutout	-11.7071
▁wise	-11.7072
▁Energy	-11.7076
Pol	-11.7076
WOO	-11.7077
tcot	-11.7077
friday	-11.7077
▁Har	-11.7077
lai	-11.7078
rg	-11.7078
Egypt	-11.708
▁cons	-11.7084
thWeeksar	-11.7085
Submission	-11.7086
LEE	-11.7086
▁WHITE	-11.7089
BuzzFeed	-11.709
▁updates	-11.709
Leon	-11.709
shore	-11.7091
Fair	-11.7092
▁customers	-11.7092
chanel	-11.7093
▁Weight	-11.7093
▁River	-11.7094
▁convinced	-11.7094
une	-11.7095
▁Custom	-11.7098
beach	-11.7099
▁Already	-11.7099
▁Corbyn	-11.7099
Log	-11.71
▁Event	-11.71
pes	-11.7101
CareerA	-11.7102
▁dealing	-11.7103
▁gear	-11.7105
▁sides	-11.7106
▁JOB	-11.7108
Rainbow	-11.7108
Brazil	-11.7109
Lib	-11.7109
▁Wishing	-11.7111
▁stretch	-11.7112
Almighty	-11.7112
woah	-11.7113
MUSIC	-11.7113
▁Study	-11.7114
XI	-11.7114
▁41	-11.7116
Soft	-11.7117
Charm	-11.7117
▁web	-11.7118
cell	-11.7119
Brooke	-11.712
▁WHOLE	-11.7122
Pie	-11.7123
▁Taehyung	-11.7123
▁➊	-11.7125
TRI	-11.7131
▁resign	-11.7133
moore	-11.7134
igh	-11.7135
▁courage	-11.7135
throwback	-11.7137
▁DOES	-11.7138
▁Listening	-11.714
Another	-11.714
▁alert	-11.7142
clo	-11.7145
dio	-11.7145
☽	-11.7147
fairy	-11.7148
▁remembered	-11.7149
Fre	-11.715
▁cum	-11.715
▁Sur	-11.715
OUS	-11.7155
Casey	-11.7156
Hockey	-11.7156
evan	-11.7156
Twitch	-11.7157
oid	-11.7157
foundation	-11.7157
▁discover	-11.7158
unity	-11.7159
Kane	-11.7159
inning	-11.7163
Hung	-11.7164
▁pose	-11.7165
snap	-11.7166
Hum	-11.7167
Problems	-11.7167
vu	-11.7169
▁Fat	-11.717
Ani	-11.7171
ivan	-11.7171
das	-11.7171
hung	-11.7175
BOOK	-11.7177
▁relevant	-11.7178
▁cartoon	-11.718
▁holidays	-11.718
▁hire	-11.7182
▁minds	-11.7182
Unique	-11.7183
flame	-11.7183
Ink	-11.7185
kara	-11.7186
Twin	-11.7186
laa	-11.7187
HAR	-11.7187
Cru	-11.7189
rif	-11.7191
Birthday	-11.7191
rite	-11.7193
rise	-11.7194
▁pot	-11.7194
▁organization	-11.7196
connect	-11.7198
tik	-11.7198
▁opposite	-11.72
yang	-11.72
Carol	-11.72
Spotify	-11.7202
cali	-11.7204
mono	-11.7205
Taurus	-11.7207
▁Machine	-11.7208
▁suspended	-11.7209
trust	-11.721
▁blanket	-11.721
WB	-11.721
▁Place	-11.7211
▁zayn	-11.7213
▁BEFORE	-11.7213
😲	-11.7213
Sale	-11.7213
saw	-11.7213
his	-11.7214
LEY	-11.7215
puff	-11.7216
abc	-11.7219
▁appearance	-11.7219
fiction	-11.722
▁heck	-11.722
▁Tree	-11.722
▁collab	-11.722
▁stfu	-11.7221
hid	-11.7221
Corey	-11.7222
potato	-11.7223
df	-11.7224
▁admire	-11.7227
lana	-11.7227
AE	-11.7227
Mikey	-11.7231
rom	-11.7231
Citizen	-11.7231
▁LOOKS	-11.7236
▁Senator	-11.7236
▁42	-11.7236
▁rush	-11.7236
ACA	-11.7236
▁Gas	-11.7237
Nad	-11.7237
mendes	-11.7238
Brother	-11.7239
pres	-11.724
WP	-11.724
productive	-11.724
▁Spurs	-11.7242
kkk	-11.7242
sssss	-11.7242
▁43	-11.7242
cherry	-11.7242
panda	-11.7243
Sunny	-11.7243
gamer	-11.7243
Kath	-11.7245
▁fries	-11.7248
▁Campaign	-11.7248
FUL	-11.7248
Columbia	-11.7249
👶	-11.7249
richard	-11.725
▁witness	-11.7252
Throwback	-11.7252
▁Mid	-11.7253
💣	-11.7253
2012	-11.7255
julie	-11.7256
▁FRIENDS	-11.7256
▁episodes	-11.7256
▁Male	-11.7259
cen	-11.726
deck	-11.7261
▁hahah	-11.7261
spect	-11.7261
▁Likes	-11.7262
▁flirt	-11.7263
▁flex	-11.7263
Sign	-11.7263
Morris	-11.7265
owl	-11.7269
▁presidential	-11.7269
▁Meanwhile	-11.7271
▁delivered	-11.7271
kd	-11.7274
zn	-11.7276
Cinema	-11.7277
wd	-11.7279
trick	-11.7279
▁Multi	-11.728
Title	-11.7282
〡	-11.7285
🇨	-11.7285
▁〡〡	-11.7285
laur	-11.7285
ZZ	-11.7286
Election	-11.7286
▁bonus	-11.7287
Ac	-11.7287
trading	-11.7289
▁Hip	-11.7291
Hail	-11.7292
BAE	-11.7292
▁Hawaii	-11.7294
▁ILYSM	-11.7294
Wy	-11.7295
Lexi	-11.7297
poop	-11.7297
🍭	-11.7298
▁Gemini	-11.7298
▁Barack	-11.7299
plo	-11.73
▁independent	-11.7302
Better	-11.7304
▁bum	-11.7306
▁frame	-11.7308
eem	-11.7308
Pastor	-11.7308
▁Six	-11.7308
▁podcast	-11.7309
SEC	-11.7309
Killer	-11.7309
▁2008	-11.731
▁caused	-11.731
dong	-11.731
▁Valley	-11.7311
▁Around	-11.7311
AO	-11.7313
▁TALK	-11.7315
FS	-11.7316
▁TD	-11.7317
Albert	-11.7317
▁musical	-11.7318
Wash	-11.7319
thisis	-11.7319
Doctor	-11.732
▁ultimate	-11.7322
Alexander	-11.7323
oda	-11.7324
Lock	-11.7324
▁diet	-11.7327
▁Detroit	-11.7328
🎮	-11.733
▁rolling	-11.7332
ake	-11.7336
Robinson	-11.7337
Staff	-11.7339
Complex	-11.7339
▁releases	-11.734
digital	-11.7341
gf	-11.7343
hav	-11.7343
beautiful	-11.7343
jackgilinsky	-11.7343
drunk	-11.7343
▁Each	-11.7345
Stars	-11.7346
🍉	-11.7348
LIE	-11.7349
HOUSE	-11.7349
dig	-11.735
bach	-11.7351
▁childish	-11.7353
▁Tribe	-11.7354
▁bid	-11.7356
▁craving	-11.7357
▁Player	-11.7359
Stra	-11.736
handmade	-11.7361
HER	-11.7362
▁Michelle	-11.7362
▁guitar	-11.7363
Jokes	-11.7363
▁Ram	-11.7363
▁Network	-11.7363
Single	-11.7364
demon	-11.7364
Mean	-11.7365
lifestyle	-11.7365
Alpha	-11.7366
citizen	-11.7367
Forbes	-11.7367
▁specific	-11.7369
promo	-11.737
bush	-11.737
Ll	-11.7372
Premiere	-11.7374
▁logo	-11.7375
Namjoon	-11.7375
Barber	-11.7375
▁Pip	-11.7376
▁FRIEND	-11.7378
ladygaga	-11.7379
turtle	-11.738
full	-11.7381
Workout	-11.7381
ution	-11.7382
odd	-11.7384
soccer	-11.7386
215	-11.7387
mcc	-11.7388
ANDROID	-11.7388
Thompson	-11.7388
▁percent	-11.7389
▁humanity	-11.739
Kn	-11.739
▁delivery	-11.7391
▁HUGE	-11.7392
Cristiano	-11.7393
Subscribe	-11.7393
UGH	-11.7394
▁Loving	-11.7395
Vet	-11.7398
darling	-11.7398
Calvin	-11.7399
mau	-11.7399
Ia	-11.7401
▁dnt	-11.7401
▁slut	-11.7401
▁MP	-11.7402
▁Shame	-11.7404
▁Curry	-11.7404
▁Coffee	-11.7406
odo	-11.7407
goo	-11.7407
▁Picture	-11.7407
▁Calling	-11.7409
▁dms	-11.7409
▁butter	-11.7409
feminist	-11.7411
▁Cent	-11.7412
Cris	-11.7412
Surprise	-11.7413
▁yup	-11.7416
▁Clear	-11.7418
▁longest	-11.7419
Chic	-11.7419
janine	-11.742
▁Local	-11.7421
▁Rate	-11.7422
Lakers	-11.7423
aur	-11.7424
poetry	-11.7426
Cross	-11.7427
clar	-11.7427
Marvel	-11.7428
▁theme	-11.7429
▁secrets	-11.743
▁fails	-11.7432
Strike	-11.7435
ESS	-11.7435
▁opinions	-11.7436
PLL	-11.7436
vas	-11.7436
▁THANKS	-11.7438
◀	-11.7438
Wednesday	-11.7438
SHIP	-11.744
▁Mario	-11.7441
Brooks	-11.7441
Hello	-11.7441
Living	-11.7442
▁presence	-11.7443
▁MILLION	-11.7448
▁achievement	-11.7448
ech	-11.7449
evans	-11.7449
grass	-11.745
▁Tory	-11.7452
▁Pisces	-11.7453
chester	-11.7456
Clinton	-11.7457
Steal	-11.7457
fred	-11.7457
OOK	-11.7457
creation	-11.746
▁Gets	-11.7463
MileyCyrus	-11.7465
LOW	-11.7466
▁Jason	-11.7467
▁Whoever	-11.7468
eeeeee	-11.7468
▁Anthony	-11.747
Ruby	-11.747
Cock	-11.7471
▁Eve	-11.7472
grim	-11.7472
forest	-11.7473
Francis	-11.7474
Harmonizers	-11.7475
Ralph	-11.7475
Solid	-11.7475
▁Pictures	-11.7475
Tank	-11.7475
MAC	-11.7476
▁Training	-11.7477
animal	-11.7477
▁TRUE	-11.7478
▁blowing	-11.7478
MOVIE	-11.7479
▁LITTLE	-11.7479
sponsor	-11.748
baker	-11.7481
▁Coach	-11.7483
▁joint	-11.7484
▁Holiday	-11.7484
LOL	-11.7486
Jackie	-11.7487
Jonas	-11.7487
shar	-11.7488
Catholic	-11.7489
▁charity	-11.7489
Senator	-11.7489
▁bloody	-11.7491
Devin	-11.7492
pls	-11.7493
▁choices	-11.7493
Wiz	-11.7497
Stranger	-11.7497
▁twin	-11.7498
Cell	-11.7499
▁Meek	-11.7499
▁sources	-11.75
▁Weird	-11.75
ih	-11.7501
GD	-11.7503
canada	-11.7505
▁worries	-11.7507
vines	-11.7509
Malcolm	-11.7511
washingtonpos	-11.7511
dylan	-11.7512
Shoes	-11.7513
Gym	-11.7514
obs	-11.7515
hammer	-11.7515
marc	-11.7516
Blonde	-11.7516
Island	-11.7517
▁Falling	-11.7517
crystal	-11.752
▁Reason	-11.752
▁PUT	-11.7521
▁Grey	-11.7521
Saturday	-11.7521
aud	-11.7522
Poll	-11.7522
▁refugees	-11.7522
▁smooth	-11.7523
dur	-11.7524
▁➋	-11.7525
NAM	-11.7526
Room	-11.7528
Arthur	-11.753
Euro	-11.753
Detroit	-11.7531
cou	-11.7533
cuff	-11.7533
Lyn	-11.7536
wana	-11.7537
hong	-11.7537
fx	-11.7537
ripped	-11.7538
▁Charlie	-11.7538
iaa	-11.7538
russ	-11.7539
▁MVP	-11.7539
Kev	-11.754
britt	-11.754
Dash	-11.754
dir	-11.754
coach	-11.7547
steven	-11.7547
▁stood	-11.7549
▁KILL	-11.755
geo	-11.7552
Doo	-11.7552
▁Lock	-11.7553
▁Mission	-11.7553
▁projects	-11.7553
▁coz	-11.7553
Twerk	-11.7553
Lowkey	-11.7554
oshi	-11.7554
Leah	-11.7555
NF	-11.7555
Dra	-11.7555
XRI	-11.7556
Jazz	-11.7557
▁Soul	-11.7557
▁Grow	-11.7558
▁edge	-11.7558
▁novel	-11.7558
▁Bu	-11.7558
▁valid	-11.7559
Revolution	-11.7559
Claire	-11.7561
iHeart	-11.7562
▁tattoos	-11.7562
Dubai	-11.7563
cri	-11.7563
payne	-11.7563
chain	-11.7563
▁Lose	-11.7564
runner	-11.7565
▁Treat	-11.7568
▁Fo	-11.7569
Need	-11.7571
Debate	-11.7571
Bud	-11.7573
▁Website	-11.7576
comedy	-11.7576
▁Kid	-11.7577
▁disappear	-11.7578
Baltimore	-11.758
flies	-11.758
▁features	-11.7582
structure	-11.7585
ARD	-11.7585
Woods	-11.7586
plant	-11.7588
Bou	-11.7588
▁bias	-11.759
KID	-11.759
rox	-11.7591
▁FUN	-11.7591
▁Idc	-11.7593
▁cam	-11.7594
AUS	-11.7595
▁Retweets	-11.7595
Cold	-11.7596
Reed	-11.7597
▁chilling	-11.7597
▁diss	-11.7598
Resist	-11.7598
iga	-11.7599
Wade	-11.76
managed	-11.7601
▁tap	-11.7601
▁tumblr	-11.7601
▁chasing	-11.7601
Crown	-11.7601
Sense	-11.7603
rand	-11.7604
▁viral	-11.7605
Henry	-11.7606
▁Rich	-11.7606
▁slip	-11.7607
▁habit	-11.7607
Listen	-11.7607
▁inner	-11.7608
yoo	-11.7608
▁PR	-11.7609
national	-11.7611
5000	-11.7611
Dude	-11.7611
bbs	-11.7612
kumar	-11.7612
rine	-11.7612
▁Seen	-11.7613
▁FIRE	-11.7613
▁shock	-11.7616
bash	-11.7617
▁Natural	-11.7618
Ai	-11.7618
ode	-11.7619
▁Election	-11.7619
INER	-11.7619
gul	-11.7621
▁fuel	-11.7622
▁fucks	-11.7623
▁Throw	-11.7624
hx	-11.7626
▁healthcare	-11.7628
Gear	-11.7628
kka	-11.763
SHI	-11.763
yeol	-11.7631
▁gosh	-11.7632
nov	-11.7635
troyesivan	-11.7636
▁cell	-11.7636
▁terrorists	-11.7637
employees	-11.7639
▁OTHER	-11.7639
Education	-11.7639
coffee	-11.7641
iba	-11.7641
▁Council	-11.7642
▁yep	-11.7644
Kidd	-11.7645
Helen	-11.7646
Mention	-11.7646
eaux	-11.7646
▁react	-11.7648
ashi	-11.7648
FollowTrain	-11.7649
▁incident	-11.765
▁LONG	-11.765
fifth	-11.7651
DON	-11.7651
Troy	-11.7653
▁Iraq	-11.7654
conscious	-11.7654
▁VIP	-11.7655
Legend	-11.7656
Irish	-11.7656
▁lift	-11.7658
Want	-11.7659
▁penalty	-11.7659
Trash	-11.7663
ر	-11.7663
nip	-11.7663
▁closing	-11.7663
▁Discover	-11.7664
▁directly	-11.7665
cial	-11.7666
tip	-11.7667
Truly	-11.7667
vp	-11.7667
▁filming	-11.7667
electric	-11.7668
Act	-11.7668
▁Sick	-11.7669
▁selfish	-11.767
cking	-11.7671
journal	-11.7671
Kl	-11.7671
Low	-11.7672
▁cleaning	-11.7673
gla	-11.7673
famous	-11.7673
ASMSG	-11.7675
tier	-11.7675
▁egg	-11.7676
▁Learning	-11.7678
anga	-11.7679
straw	-11.7679
▁Oscar	-11.768
Mir	-11.768
▁hmu	-11.7681
amir	-11.7682
▁avi	-11.7683
rrrr	-11.7684
destiny	-11.7684
qa	-11.7685
▁Vol	-11.7686
▁Ross	-11.7687
Oomf	-11.7687
inho	-11.7687
▁Irish	-11.7688
stu	-11.769
▁pig	-11.7692
annie	-11.7692
lton	-11.7693
PeoplesChoice	-11.7696
danny	-11.7697
elia	-11.7697
Bondage	-11.7697
▁Daughter	-11.7698
▁exposed	-11.7699
▁massage	-11.7699
marvel	-11.7701
▁2007	-11.7701
term	-11.7702
▁Yu	-11.7702
▁facing	-11.7703
ween	-11.7704
reach	-11.7704
🍓	-11.7705
tai	-11.7708
▁topic	-11.7709
ening	-11.7709
ruth	-11.7709
▁Pence	-11.7709
1994	-11.771
▁disaster	-11.7711
Feel	-11.7716
ggie	-11.7717
julia	-11.7717
▁Race	-11.7719
Benjamin	-11.7719
🙉	-11.7719
COD	-11.7722
Wedding	-11.7722
Christ	-11.7724
Salute	-11.7725
▁Max	-11.7725
Salman	-11.7725
Dot	-11.7728
Turner	-11.7729
data	-11.7733
fried	-11.7733
▁population	-11.7734
davis	-11.7734
▁sake	-11.7735
kira	-11.7735
Spring	-11.7739
▁awareness	-11.774
BM	-11.7742
▁garbage	-11.7743
feeling	-11.7744
VOTE	-11.7745
▁sweetie	-11.7746
Broncos	-11.7748
▁Sound	-11.7748
biebs	-11.7749
▁offended	-11.7751
▁Sept	-11.7752
🔪	-11.7752
HILL	-11.7753
▁phones	-11.7755
lack	-11.7755
keith	-11.7756
Whit	-11.7758
eI	-11.7761
▁HAHAHA	-11.7762
▁develop	-11.7763
GOLD	-11.7763
▁PHOTOS	-11.7763
chang	-11.7763
▁perfection	-11.7767
mother	-11.7767
▁thug	-11.7768
Eva	-11.7769
tsu	-11.777
▁Federal	-11.7771
Northern	-11.7771
cindy	-11.7773
naked	-11.7773
Denver	-11.7773
▁Stage	-11.7774
▁preach	-11.7775
¿	-11.7776
▁mixtape	-11.7778
bk	-11.7778
UE	-11.7779
Tokyo	-11.7781
▁efforts	-11.7783
sage	-11.7785
▁phase	-11.7785
BBMAsTopSocial	-11.7785
Sham	-11.7786
Todd	-11.7786
▁Running	-11.7787
Welcome	-11.7787
▁joking	-11.7787
cold	-11.7788
▁Sell	-11.7789
DonaldJTrumpJ	-11.779
Suicide	-11.779
VMAs	-11.779
▁END	-11.7791
▁Away	-11.7794
Sagittarius	-11.7794
Advice	-11.7794
▁stranger	-11.7796
surf	-11.7797
mmer	-11.7797
Vijay	-11.7797
▁600	-11.7799
cau	-11.7799
▁louis	-11.78
Bitcoin	-11.78
▁legendary	-11.7801
Rome	-11.7801
Yemen	-11.7801
gomez	-11.7802
▁yelling	-11.7802
rave	-11.7804
years	-11.7806
▁charger	-11.7807
▁Met	-11.7809
Foster	-11.7809
iiiii	-11.781
▁Pizza	-11.7811
Rank	-11.7812
radical	-11.7813
▁uncomfortable	-11.7813
Belle	-11.7815
Attack	-11.7815
FLY	-11.7815
▁Ray	-11.7816
▁screenshot	-11.7816
KL	-11.7816
▁000	-11.7817
jn	-11.7817
▁teens	-11.7818
duct	-11.7818
▁RED	-11.7819
▁Dan	-11.7819
Iowa	-11.7819
umb	-11.782
stagram	-11.7822
knight	-11.7823
Motor	-11.7823
▁plastic	-11.7823
Tyga	-11.7825
TRO	-11.7826
lim	-11.7826
▁deeply	-11.7827
▁Chance	-11.7829
▁footage	-11.783
reen	-11.783
▁appreciation	-11.7832
▁danger	-11.7836
TOP	-11.7836
▁PARTY	-11.7836
Spencer	-11.7837
Rosa	-11.7838
Alden	-11.7838
hook	-11.7839
List	-11.784
Brea	-11.7842
south	-11.7842
▁journalist	-11.7844
Mason	-11.7846
NadineLustre	-11.7846
tease	-11.7848
▁ZAYN	-11.7849
KEY	-11.7849
▁Whenever	-11.7851
Awesome	-11.7853
▁Yellow	-11.7854
Small	-11.7855
▁Shows	-11.7856
▁doors	-11.7856
Derby	-11.7858
linda	-11.7859
▁Customer	-11.7859
▁Thomas	-11.786
▁flop	-11.7861
⚾	-11.7861
Gl	-11.7862
/6	-11.7862
Demi	-11.7863
dv	-11.7863
Bradley	-11.7864
therapy	-11.7864
▁tied	-11.7864
oto	-11.7865
wasting	-11.7865
quan	-11.7866
Dale	-11.7868
▁appeal	-11.7868
▁Biden	-11.787
arr	-11.7872
erry	-11.7874
Rai	-11.7874
Nike	-11.7875
⁩	-11.7875
▁nuts	-11.7876
▁hottest	-11.7877
UCL	-11.7878
128	-11.7879
Jill	-11.7879
▁north	-11.7882
Force	-11.7882
SNP	-11.7883
laugh	-11.7884
▁endless	-11.7885
Nina	-11.7886
thank	-11.7887
Chanel	-11.7887
idi	-11.7888
▁couch	-11.7888
blank	-11.7889
george	-11.7889
▁fought	-11.789
rapping	-11.7892
Write	-11.7892
▁sudden	-11.7893
kl	-11.7893
🤑	-11.7894
Third	-11.7895
Blast	-11.7896
▁Baekhyun	-11.7896
▁Ju	-11.7897
▁mph	-11.7897
▁swimming	-11.7899
candy	-11.7899
winter	-11.79
writer	-11.79
bop	-11.79
jaw	-11.7901
Auto	-11.7902
▁sang	-11.7902
▁dedicated	-11.7903
shah	-11.7906
Alien	-11.7906
Jenny	-11.7906
Bond	-11.7907
vee	-11.7909
cn	-11.791
Retro	-11.791
GL	-11.7912
Guide	-11.7912
Sexual	-11.7915
Cop	-11.7915
Wales	-11.7916
▁Totally	-11.7919
iku	-11.7919
▁soldiers	-11.792
▁Together	-11.792
coupon	-11.7922
▁Josh	-11.7922
▁Bear	-11.7923
meh	-11.7924
Needs	-11.7926
Maya	-11.7927
circ	-11.7927
▁responsibility	-11.7927
aint	-11.7933
patch	-11.7934
bong	-11.7935
PHONE	-11.7936
hate	-11.7936
▁William	-11.7936
▁sends	-11.7937
╝	-11.7937
ground	-11.7938
▁Cook	-11.7938
▁Jennifer	-11.7942
BAN	-11.7942
Goat	-11.7943
▁Lead	-11.7946
▁Feels	-11.7947
kil	-11.795
▁nuclear	-11.7951
planet	-11.7953
Florida	-11.7955
▁HOPE	-11.7957
▁annoy	-11.7958
Kush	-11.7959
▁Smile	-11.7962
Cli	-11.7962
neo	-11.7965
▁congratulations	-11.7966
singh	-11.7966
rge	-11.7967
▁height	-11.7969
Shots	-11.7969
monster	-11.797
proof	-11.7971
Jenn	-11.7971
Native	-11.7975
Oak	-11.7975
▁picks	-11.7975
PORT	-11.7975
Mick	-11.7977
Lar	-11.7977
▁properly	-11.7979
Data	-11.7979
aesthetic	-11.798
twenty	-11.798
▁youtube	-11.798
elena	-11.7981
Shawty	-11.7982
neil	-11.7983
stealing	-11.7983
▁2005	-11.7987
HB	-11.7988
rac	-11.7989
▁Bracelet	-11.799
▁cases	-11.7991
employ	-11.7992
▁presents	-11.7994
و	-11.7994
▁physically	-11.7997
Legion	-11.7998
ENCE	-11.7998
▁retweeting	-11.7999
▁solve	-11.8
PRESS	-11.8
▁Te	-11.8001
▁spoil	-11.8001
Wonder	-11.8001
BYE	-11.8003
Hell	-11.8004
uta	-11.8004
1997	-11.8007
ural	-11.8007
▁yu	-11.8007
Protest	-11.8008
folk	-11.8008
▁Following	-11.8009
▁weapons	-11.8009
ector	-11.801
fangirl	-11.8011
▁accent	-11.8012
ANCE	-11.8013
done	-11.8015
lN	-11.8017
oro	-11.8017
▁theory	-11.8018
webcam	-11.8018
Nam	-11.8019
HIT	-11.8022
▁Royal	-11.8023
Management	-11.8023
Cara	-11.8024
iki	-11.8024
cies	-11.8024
micro	-11.8025
Diva	-11.8029
▁Goals	-11.8031
Galaxy	-11.8032
▁sur	-11.8032
badass	-11.8033
▁graduation	-11.8033
using	-11.8035
Request	-11.8036
SR	-11.8037
Linda	-11.8037
💑	-11.8038
▁Uber	-11.8039
Followers	-11.8039
▁counting	-11.804
norm	-11.8041
mol	-11.8041
▁Tu	-11.8042
eek	-11.8042
༻	-11.8043
🐸	-11.8043
Sound	-11.8043
ought	-11.8043
▁bitter	-11.8045
NH	-11.8045
▁rescue	-11.8047
nya	-11.8047
▁EXCITED	-11.8047
jenn	-11.8049
ooh	-11.8051
actor	-11.8052
Egg	-11.8052
Carlos	-11.8052
Private	-11.8052
ension	-11.8055
andrea	-11.8055
desi	-11.8056
▁Lay	-11.8057
FollowParty	-11.8058
▁Original	-11.8059
spec	-11.8059
Flip	-11.8059
▁Mama	-11.806
them	-11.8061
༺	-11.8062
▁transform	-11.8063
Dancing	-11.8064
Virgin	-11.8064
Beau	-11.8064
👨	-11.8067
SIDE	-11.8067
Arts	-11.8068
▁Experience	-11.8069
▁Embed	-11.8069
claire	-11.807
Store	-11.807
3.5	-11.8071
▁Miller	-11.8071
scene	-11.8073
JUN	-11.8073
indi	-11.8074
cure	-11.8075
ा	-11.8076
▁enemies	-11.8076
SOSFamily	-11.8079
Leigh	-11.808
reck	-11.808
Models	-11.8081
®	-11.8081
🤞	-11.8081
🤩	-11.8081
District	-11.8081
▁LAUGHING	-11.8082
Ul	-11.8083
▁Sterling	-11.8084
PIN	-11.8085
steel	-11.8085
Xmas	-11.8085
▁FINAL	-11.8085
Lincoln	-11.8086
dinahjane	-11.8086
phrase	-11.8086
▁prime	-11.8086
titude	-11.8091
▁Jam	-11.8091
TRE	-11.8093
arri	-11.8093
▁options	-11.8094
aldub	-11.8094
FY	-11.8095
mae	-11.8099
spi	-11.81
▁annual	-11.8101
▁Large	-11.8102
thor	-11.8102
Gro	-11.8105
whale	-11.8105
BREAK	-11.8105
gus	-11.8106
solar	-11.8107
▁Khan	-11.8108
spring	-11.8109
brick	-11.811
poke	-11.8112
▁loads	-11.8114
glory	-11.8115
▁Either	-11.8115
CLE	-11.8116
uv	-11.8117
Kpop	-11.8118
▁aunt	-11.8119
▁Station	-11.812
bam	-11.8122
strong	-11.8124
backlink	-11.8125
▁47	-11.8126
▁shook	-11.8126
conf	-11.8126
▁Personal	-11.8126
▁terrorism	-11.8126
Arena	-11.8127
nikki	-11.8128
thankyou	-11.8128
▁orders	-11.8129
▁weakness	-11.813
Deal	-11.8131
▁➌	-11.8132
OnThe	-11.8132
Pix	-11.8133
🇱	-11.8135
Said	-11.8135
gossip	-11.8135
inda	-11.8136
probs	-11.8136
▁idiots	-11.8137
Flu	-11.8138
tf	-11.8138
▁captain	-11.8138
rita	-11.8139
Lite	-11.814
▁memes	-11.814
clutch	-11.8141
cream	-11.8141
▁violent	-11.8141
Earn	-11.8143
▁Kendrick	-11.8143
▁Brilliant	-11.8144
▁Couple	-11.8144
madison	-11.8144
▁motivation	-11.8144
▁strategy	-11.8144
▁seeking	-11.8145
beats	-11.8145
▁WR	-11.8145
1.0	-11.8146
▁Community	-11.8147
Wan	-11.8147
▁champion	-11.8147
Ideas	-11.815
boob	-11.8153
wah	-11.8153
leen	-11.8153
lene	-11.8153
TheTumblrPost	-11.8154
▁mask	-11.8155
Non	-11.8157
▁goodness	-11.8158
▁0.00	-11.816
Powerful	-11.8161
Cuba	-11.8162
▁VS	-11.8162
😙	-11.8164
BamBam	-11.8164
▁useless	-11.8165
▁Ham	-11.8168
▁commission	-11.8169
888	-11.8171
Moo	-11.8171
Promotion	-11.8172
▁subscribe	-11.8172
▁Diego	-11.8174
jobsearch	-11.8174
Dennis	-11.8174
Away	-11.8175
uggle	-11.8175
▁items	-11.8176
Date	-11.8178
INS	-11.8179
UD	-11.8179
▁Cardi	-11.8181
tos	-11.8182
▁Heaven	-11.8182
▁́	-11.8184
Tw	-11.8184
Naked	-11.8187
▁sweetest	-11.8188
RV	-11.8191
Angry	-11.8191
aji	-11.8191
zay	-11.8192
glass	-11.8193
ShawnAbne	-11.8193
_5	-11.8194
▁password	-11.8197
Thick	-11.8198
kor	-11.8198
Shine	-11.8199
▁Rob	-11.82
ATT	-11.8203
▁inspire	-11.8205
▁asses	-11.8206
Terri	-11.8207
Ker	-11.8207
Ellie	-11.8209
▁voter	-11.8211
agon	-11.8212
▁LISTEN	-11.8212
▁Quality	-11.8213
Aust	-11.8214
Dodgers	-11.8214
villa	-11.8214
Zee	-11.8215
Bree	-11.8218
▁Bird	-11.8218
solo	-11.8222
Sierra	-11.8223
▁Gucci	-11.8226
naughty	-11.8227
NV	-11.8227
Husband	-11.8228
jeong	-11.8228
Nerd	-11.8229
Clo	-11.8229
▁BELIEVE	-11.8229
muslim	-11.8229
simply	-11.8231
feels	-11.8231
RW	-11.8234
▁range	-11.8234
Mister	-11.8235
▁standards	-11.8236
▁Reach	-11.8236
oppa	-11.824
Eagle	-11.8241
Hawk	-11.8242
licious	-11.8242
▁McCain	-11.8243
Shar	-11.8243
▁Education	-11.8243
▁Said	-11.8245
zoo	-11.8245
LF	-11.8246
claimed	-11.8248
ride	-11.8249
▁Shot	-11.825
▁whoop	-11.825
▁Posted	-11.8251
afi	-11.8252
LIN	-11.8253
Trick	-11.8254
_10	-11.8255
Self	-11.8255
SRK	-11.8256
Coco	-11.8256
▁Level	-11.8257
▁religious	-11.8257
Subjecti	-11.8258
▁eggs	-11.8259
Stat	-11.826
▁crimes	-11.8261
gm	-11.8262
FN	-11.8262
▁Mourinho	-11.8262
yee	-11.8263
Iron	-11.8263
▁Girlfriend	-11.8265
wishing	-11.8265
▁bodies	-11.8266
▁previous	-11.8267
▁village	-11.8267
▁domestic	-11.8267
aaay	-11.8268
▁peep	-11.8269
eer	-11.8269
ghost	-11.8269
Straw	-11.8271
NM	-11.8271
▁expert	-11.8271
Melo	-11.8272
block	-11.8273
female	-11.8274
raa	-11.8274
DV	-11.8275
▁duty	-11.8275
rule	-11.8277
▁Hmm	-11.8277
four	-11.8278
▁52	-11.8279
hump	-11.8281
BN	-11.8282
Wheel	-11.8282
▐	-11.8282
drone	-11.8282
▁Par	-11.8285
ookie	-11.8287
ALE	-11.8287
▁century	-11.8287
▁expression	-11.8287
▁Colorado	-11.8287
Review	-11.8288
▁Couldn	-11.8291
Swim	-11.8291
plat	-11.8292
tah	-11.8292
LOHANTHONY	-11.8292
cameron	-11.8293
▁assist	-11.8293
Vision	-11.8293
▁raped	-11.8293
April	-11.8295
Geo	-11.8296
mart	-11.8297
hyuk	-11.8298
▁SOON	-11.8299
▁library	-11.8299
chelsea	-11.83
▁genuine	-11.8301
1996	-11.8302
LING	-11.8303
Texans	-11.8303
LEA	-11.8303
Paid	-11.8305
Oo	-11.8305
001	-11.8307
▁Chicken	-11.8307
makeup	-11.8307
▁DNA	-11.8308
▁miracle	-11.8308
Sid	-11.8309
112	-11.8311
erie	-11.8312
COL	-11.8313
▁fund	-11.8314
Karma	-11.8314
▁Expect	-11.8315
eck	-11.8316
ddy	-11.8317
Safety	-11.8317
▁inspiring	-11.8317
▁acts	-11.8318
retro	-11.8318
IDOL	-11.8319
Bea	-11.832
▁Told	-11.832
leah	-11.832
rilla	-11.832
rough	-11.8321
Rahul	-11.8323
Hotel	-11.8325
PrisonPlanet	-11.8327
▁fancy	-11.8327
penguin	-11.8327
ote	-11.8327
▁SAVE	-11.833
ional	-11.8331
Scotland	-11.8332
▁bucket	-11.8332
Brock	-11.8333
pepper	-11.8335
due	-11.8335
Rec	-11.8336
Sally	-11.8338
KEN	-11.8341
Conservative	-11.8341
▁whip	-11.8346
ange	-11.8346
▁MAD	-11.8346
Cricket	-11.8347
HOT	-11.8347
▁Doctor	-11.8349
crack	-11.8349
▁sooooo	-11.8349
oak	-11.8351
🍌	-11.8352
gifs	-11.8353
Veterans	-11.8353
1999	-11.8353
alon	-11.8353
▁register	-11.8359
▁peaceful	-11.836
mul	-11.8363
eagle	-11.8364
robert	-11.8365
prem	-11.8365
stuff	-11.8366
Lopez	-11.8367
camila	-11.8367
125	-11.8367
▁twins	-11.8368
ude	-11.8369
Sno	-11.837
extra	-11.8372
▁spider	-11.8374
▁Celebrate	-11.8374
dk	-11.8375
▁lean	-11.8375
Part	-11.8375
dup	-11.8376
▁Field	-11.8376
▁Pain	-11.8377
jongin	-11.8378
dana	-11.8378
dread	-11.8379
▁stolen	-11.8382
▁Present	-11.8385
▁Plz	-11.8386
▁Square	-11.8386
Marriage	-11.8386
Wayne	-11.8387
Pod	-11.8388
vive	-11.8388
▁Sing	-11.839
inte	-11.839
Shout	-11.8394
BAND	-11.8395
sick	-11.8396
district	-11.8396
STREAM	-11.8397
▁Currently	-11.8398
▁OLD	-11.8399
nw	-11.8401
Path	-11.8401
Sales	-11.8402
pts	-11.8404
Being	-11.8404
used	-11.8404
joey	-11.8406
BieberAnnual	-11.8406
▁temporary	-11.8406
▁routine	-11.8407
▁39	-11.8407
fame	-11.8408
▁banana	-11.8408
guru	-11.8409
Dil	-11.841
Gurus	-11.8411
bran	-11.8411
Tiny	-11.8412
BLA	-11.8412
▁Stupid	-11.8415
sense	-11.8416
Lofty	-11.8416
▁Tower	-11.8419
Goodbye	-11.8419
Aus	-11.8422
▁Murder	-11.8424
motivation	-11.8424
▁sauce	-11.8424
▁hidden	-11.8427
diva	-11.8427
Honest	-11.8428
clay	-11.8428
Christina	-11.8428
KCAMexico	-11.8432
pup	-11.8432
Cee	-11.8435
reading	-11.8438
Mash	-11.8438
▁SORRY	-11.8439
pil	-11.844
Shy	-11.8441
▁Hong	-11.8441
Australia	-11.8443
Lyric	-11.8443
▁sc	-11.8445
▁surround	-11.8446
election	-11.8446
fie	-11.8446
uzi	-11.8451
▁emotionally	-11.8451
MAYWARD	-11.8452
🐍	-11.8452
▁intense	-11.8452
Angels	-11.8452
▁Style	-11.8454
rival	-11.8454
▁deny	-11.8455
Stefan	-11.8456
itter	-11.8456
▁farm	-11.8457
velvet	-11.8457
▁lads	-11.8457
drive	-11.8458
ATING	-11.8458
▁Push	-11.8459
invented	-11.8459
▁offering	-11.846
council	-11.8462
/8	-11.8462
▁Leather	-11.8462
▁doctors	-11.8464
quir	-11.8468
taehyung	-11.8468
▁Hospital	-11.8468
▁Woke	-11.8469
zon	-11.8472
▁income	-11.8473
Iove	-11.8473
Vanessa	-11.8477
Samuel	-11.8478
museum	-11.8478
Obey	-11.848
▁Dragon	-11.8482
UCK	-11.8483
GOAT	-11.8483
Twins	-11.8483
Trending	-11.8484
Mode	-11.8485
▁magical	-11.8485
Palmer	-11.8486
bah	-11.8486
itis	-11.8486
activities	-11.8487
Solar	-11.8487
hahahah	-11.8488
galaxy	-11.849
dim	-11.8491
ferr	-11.8492
bble	-11.8492
▁Cameron	-11.8492
Bul	-11.8493
Silk	-11.8497
▁Sagittarius	-11.8497
tors	-11.8498
startup	-11.8498
stat	-11.85
yam	-11.85
defending	-11.8501
Gene	-11.8501
▁toward	-11.8502
▁Tyler	-11.8505
POS	-11.8506
▁Happiness	-11.8508
aul	-11.8508
▁raising	-11.8508
Hyun	-11.8509
▁Lakers	-11.8509
▁OWN	-11.8512
🍒	-11.8512
▁Bang	-11.8516
cz	-11.8516
Vancouver	-11.8517
wright	-11.8518
psycho	-11.852
ships	-11.8521
Alone	-11.8521
meow	-11.8523
▁monster	-11.8524
bak	-11.8526
GY	-11.8526
issy	-11.8527
▁PREVIEW	-11.8527
▁breast	-11.8529
fran	-11.853
shoot	-11.853
Charge	-11.8531
▁fabulous	-11.8532
Midnight	-11.8534
▁Richard	-11.8535
http	-11.8537
christian	-11.8538
tap	-11.8538
Enslave	-11.8538
Por	-11.8538
support	-11.8539
fund	-11.8541
▁texted	-11.8541
opportunities	-11.8543
awn	-11.8543
▁Drink	-11.8543
▁YOURE	-11.8544
Have	-11.8544
▁#10	-11.8544
toast	-11.8545
▁rub	-11.8546
ility	-11.8546
2001	-11.8547
country	-11.8548
▁Eating	-11.8548
▁anal	-11.8551
▁commitment	-11.8551
talia	-11.8551
▁affect	-11.8553
▁ffs	-11.8553
Rid	-11.8554
fix	-11.8555
▁Border	-11.8555
Race	-11.8555
Bike	-11.8556
▁crossed	-11.8557
fuI	-11.8557
piece	-11.8559
▁NAME	-11.8559
▁attacking	-11.8559
bible	-11.8561
uru	-11.8562
QUA	-11.8562
Kentucky	-11.8563
onia	-11.8564
▁Rico	-11.8565
hah	-11.8565
AHS	-11.8565
saturday	-11.8566
▁WA	-11.8566
realizing	-11.8569
mint	-11.8569
Reg	-11.8569
Tell	-11.8571
Battle	-11.8571
Ship	-11.8574
project	-11.8574
AMA	-11.8575
▁signal	-11.8576
gallery	-11.8576
▁investment	-11.8577
▁Target	-11.8577
👆	-11.8578
choi	-11.858
Warrior	-11.858
Cherry	-11.8581
▁GOAL	-11.8582
▁trap	-11.8583
bry	-11.8584
JW	-11.8584
Spy	-11.8585
ais	-11.8585
▁Jump	-11.8585
chuck	-11.8585
hrs	-11.8585
▁wasnt	-11.8586
mrs	-11.8587
Second	-11.8588
und	-11.8588
▁google	-11.8588
quality	-11.8592
ether	-11.8592
▁promotion	-11.8593
▁aside	-11.8593
▁Pokemon	-11.8594
Nine	-11.8596
OTRA	-11.8596
▁Kinda	-11.8597
lucky	-11.8598
lani	-11.8598
▁Dem	-11.86
zach	-11.86
sauce	-11.86
▁messy	-11.8602
▁featured	-11.8603
Romance	-11.8603
▁drivers	-11.8603
▁Hands	-11.8603
hype	-11.8606
Comic	-11.8606
said	-11.8606
Vibe	-11.8607
▁hosting	-11.8608
btc	-11.8608
▁haircut	-11.8609
🍔	-11.8609
Glo	-11.8611
Lily	-11.8613
IGHT	-11.8613
reaching	-11.8614
▁exams	-11.8615
smart	-11.8617
roid	-11.8618
▁Arizona	-11.8618
loc	-11.8619
Journey	-11.8624
Cher	-11.8624
▁yesss	-11.8625
▁Medical	-11.8627
▁tuned	-11.8629
Gabriel	-11.8629
nana	-11.863
Greek	-11.863
Wide	-11.8631
WorldStarFun	-11.8631
UB	-11.8632
▁headphones	-11.8634
▁REMEMBER	-11.8635
Series	-11.8635
raven	-11.8636
▁hacked	-11.8637
IB	-11.8638
KT	-11.8638
▁adding	-11.8638
▁promises	-11.864
▁Chanyeol	-11.864
Knicks	-11.864
jenny	-11.8641
ception	-11.8643
▁replie	-11.8643
figured	-11.8644
BOX	-11.8649
▁niall	-11.8649
Bdsm	-11.865
Soldier	-11.8651
Article	-11.8651
answered	-11.8651
▁Anniversary	-11.8651
▁FUNNY	-11.8653
Writing	-11.8655
▁PSA	-11.8656
JoyAnn	-11.8656
dirty	-11.8657
jazz	-11.8658
▁quest	-11.8658
▁install	-11.8658
nbc	-11.8659
NES	-11.8659
hoop	-11.8659
lite	-11.866
chief	-11.8661
Cover	-11.8661
▁FIGHT	-11.8662
▁SLEEP	-11.8665
mystery	-11.8667
Butter	-11.8669
Heather	-11.8669
▁Governor	-11.867
Cotton	-11.8671
PAC	-11.8672
▁Phil	-11.8672
▁Kenya	-11.8673
▁newest	-11.8673
▁shaking	-11.8674
Center	-11.8675
million	-11.8675
elephant	-11.8676
▁Cash	-11.8676
▁uniform	-11.8676
▁license	-11.8676
ayyy	-11.8677
▁QUEEN	-11.8678
Patriots	-11.8678
studio	-11.8679
flawless	-11.868
▁participate	-11.8681
eme	-11.8684
garcia	-11.8684
ase	-11.8685
lem	-11.8686
▁LOUIS	-11.8686
cass	-11.8688
LIST	-11.8688
ooooooo	-11.8689
▁strikes	-11.8689
arse	-11.8691
gos	-11.8691
▁kit	-11.8693
motor	-11.8694
earrings	-11.8696
Cheat	-11.87
xr	-11.87
ม	-11.8701
bailey	-11.8703
pus	-11.8703
did	-11.8706
engineer	-11.8706
▁Train	-11.8707
▁Shirt	-11.8707
dian	-11.8707
PED	-11.8708
Ford	-11.8711
Reaction	-11.8714
Yoga	-11.8714
gret	-11.8716
Ter	-11.8717
Prime	-11.8718
Atlanta	-11.8718
insider	-11.872
sters	-11.872
▁task	-11.872
▁MEET	-11.872
Dame	-11.8721
Industry	-11.8722
Wisconsin	-11.8722
TIN	-11.8724
Alexa	-11.8727
▁Student	-11.8727
seanhannity	-11.8727
nal	-11.8727
▁boots	-11.8729
▁Patrick	-11.8731
Special	-11.8732
KamalaHarris	-11.8732
xl	-11.8734
ZI	-11.8734
▁HIT	-11.8734
ulu	-11.8735
Kas	-11.8735
▁critical	-11.8735
▁coast	-11.8735
▁Trade	-11.8737
Roy	-11.8738
wwww	-11.874
▁designed	-11.8741
sala	-11.8742
Tara	-11.8742
nish	-11.8742
mich	-11.8743
▁LIAM	-11.8744
▁purple	-11.8747
mud	-11.8748
Everton	-11.875
Block	-11.875
+	-11.875
▁trees	-11.8751
▁carrying	-11.8751
▁exists	-11.8752
▁Spa	-11.8752
Drop	-11.8754
MOR	-11.8754
CITY	-11.8755
amazing	-11.8756
cp	-11.8757
Lions	-11.8757
cky	-11.8759
cco	-11.8759
Trevor	-11.876
▁failing	-11.8761
kb	-11.8761
image	-11.8762
▁Gandhi	-11.8763
ratchet	-11.8764
▁dang	-11.8764
▁championship	-11.8765
Zar	-11.8765
deer	-11.8771
Greece	-11.8772
corp	-11.8772
📱	-11.8774
TAL	-11.8774
▁sticker	-11.8774
212	-11.8775
pam	-11.8776
KathNiel	-11.8777
PK	-11.8777
▁conservative	-11.8778
Arch	-11.8778
ario	-11.8778
▁addicted	-11.8779
▁Marvel	-11.8782
▁Students	-11.8783
▁pages	-11.8783
▁Orange	-11.8784
Sanchez	-11.8784
▁fck	-11.8785
Micro	-11.8786
Stand	-11.8787
▁wet	-11.8787
wards	-11.8787
▁root	-11.8789
Dur	-11.8789
Recipe	-11.8789
hemmings	-11.879
maa	-11.879
▁prolly	-11.8791
1998	-11.8791
cis	-11.8796
hardcore	-11.8796
▁Hear	-11.8797
Anon	-11.8799
▁Leader	-11.88
▁Francisco	-11.88
▁belief	-11.8801
Countdown	-11.8801
▁battery	-11.8802
match	-11.8802
Wor	-11.8805
Kit	-11.8805
YOON	-11.8805
▁oppose	-11.8806
▁WON	-11.8807
▁DIDNT	-11.8807
tiff	-11.8808
▁brush	-11.8809
gab	-11.881
Service	-11.881
❁	-11.881
Ref	-11.881
Rescue	-11.881
▁Um	-11.8811
kari	-11.8812
organ	-11.8813
▁touched	-11.8814
▁51	-11.8814
▁log	-11.8815
Engineer	-11.8815
▁breathing	-11.8815
Bulls	-11.8816
▁Ocean	-11.8817
nai	-11.8818
▁Hood	-11.8819
sonic	-11.8819
▁Brady	-11.8819
nnie	-11.882
Punk	-11.8823
REN	-11.8824
ginger	-11.8824
7_	-11.8825
Chen	-11.8826
▁screw	-11.8826
ovo	-11.8827
paris	-11.883
cip	-11.883
NCTsmtown	-11.8831
▁Scottish	-11.8834
connor	-11.8835
Lmao	-11.8836
CG	-11.8836
VC	-11.8837
double	-11.8838
▁Legend	-11.884
BLACK	-11.884
poly	-11.8841
Bit	-11.8841
▁havent	-11.8843
▁Safe	-11.8844
BTC	-11.8844
Danielle	-11.8845
Kansas	-11.8847
kanyewest	-11.8847
lev	-11.8847
Sleep	-11.8848
HornyFact	-11.8849
lak	-11.885
REE	-11.885
▁matches	-11.8851
Scream	-11.8852
▁thi	-11.8853
juice	-11.8853
▁bars	-11.8854
cfc	-11.8854
esha	-11.8855
jury	-11.8856
CAR	-11.8856
TOM	-11.8856
▁Castle	-11.8857
▁Earrings	-11.8857
DW	-11.8858
acid	-11.8858
▁Poll	-11.8858
ige	-11.8858
▁Lovely	-11.8858
surely	-11.886
HBD	-11.886
▁Mis	-11.886
▁AWAY	-11.8863
lance	-11.8864
▁Flynn	-11.8864
Bol	-11.8864
Ski	-11.8864
Shopping	-11.8865
▁360	-11.8866
movies	-11.8866
Clay	-11.8867
▁Anyway	-11.8867
rauhl	-11.8868
▁begging	-11.8868
igo	-11.887
▁Parliament	-11.8871
quest	-11.8872
Robot	-11.8876
▁choke	-11.8876
▁shirts	-11.8876
GAY	-11.8877
▁penis	-11.8879
eira	-11.888
▁produce	-11.888
▁Spider	-11.8881
▁Fear	-11.8881
Major	-11.8881
▁Legal	-11.8882
ature	-11.8883
4.0	-11.8883
TheFunnyTeens	-11.8883
THER	-11.8885
Coll	-11.8887
Heat	-11.8887
mk	-11.8887
gasm	-11.8888
▁Ultimate	-11.8888
Bright	-11.8891
▁laughs	-11.8891
Exp	-11.8892
▁depends	-11.8893
▁FAKE	-11.8895
vocals	-11.8897
▁conspiracy	-11.8897
dp	-11.8899
Unless	-11.89
▁awww	-11.89
▁#375	-11.89
▁FaceTime	-11.8901
▁beard	-11.8903
▁leaked	-11.8904
▁smells	-11.8904
▁anthem	-11.8905
▁expectations	-11.8906
▁included	-11.8906
▁production	-11.8907
▁melt	-11.8907
Market	-11.8907
▁nomination	-11.891
▁Email	-11.891
ELLE	-11.8911
▁candidates	-11.8912
▁Kick	-11.8912
MusicVideo	-11.8913
▁Foundation	-11.8914
1017	-11.8915
▁Different	-11.8915
▁Suck	-11.8916
ANS	-11.8918
▁marks	-11.8919
▁scare	-11.8919
▁Western	-11.8921
▁Roman	-11.8922
▁centre	-11.8924
etsymnt	-11.8926
otto	-11.8926
TheVampsband	-11.8926
Lunch	-11.8927
Dublin	-11.8927
▁illness	-11.8927
fill	-11.8929
Cle	-11.8929
caps	-11.893
holly	-11.893
Biafra	-11.893
▁weapon	-11.893
▁Sheeran	-11.8931
MARK	-11.8931
1989	-11.8931
draw	-11.8933
▁chips	-11.8934
▁thin	-11.8934
Cri	-11.8935
▁greater	-11.8936
gard	-11.8936
▁Fine	-11.8936
▁Goes	-11.8937
▁profit	-11.8937
imi	-11.8939
scot	-11.894
▁BRUH	-11.894
Poo	-11.8941
▁STORY	-11.8942
jimmy	-11.8943
Lang	-11.8944
tax	-11.8944
▁Basketball	-11.8944
rach	-11.8945
▁stays	-11.8947
uan	-11.8948
opa	-11.8949
▁wisdom	-11.8949
▁however	-11.8951
▁VOTING	-11.8952
Stream	-11.8952
▁START	-11.8953
Cow	-11.8953
NEY	-11.8954
type	-11.8954
price	-11.8957
Drum	-11.8958
lead	-11.8961
▁dig	-11.8961
▁VA	-11.8962
▁Committee	-11.8963
Computer	-11.8963
▁nonsense	-11.8963
Meghan	-11.8964
Sammy	-11.8965
Guard	-11.8966
▁merch	-11.8968
▁prop	-11.8968
odge	-11.8969
LR	-11.8969
Ayo	-11.8969
Pres	-11.8969
Hen	-11.897
haley	-11.8971
lei	-11.8972
blush	-11.8973
Friends	-11.8974
BOT	-11.8974
▁SHUT	-11.8977
halloween	-11.8979
Mess	-11.898
Intel	-11.898
alli	-11.8981
▁nothin	-11.8982
▁recorded	-11.8983
Motivation	-11.8984
ง	-11.8984
Demon	-11.8985
yyyyyy	-11.8985
▁thirsty	-11.8986
Reports	-11.8987
▁DOJ	-11.8987
▁kindness	-11.8987
Paint	-11.8988
▁thx	-11.899
Eu	-11.899
▁Movies	-11.8994
Vis	-11.8994
'(	-11.8995
Rubi	-11.8996
Bunny	-11.8996
Results	-11.8997
girI	-11.9
▁Hmmm	-11.9001
Abu	-11.9002
avon	-11.9003
nks	-11.9003
Than	-11.9003
Adorable	-11.9004
BOSS	-11.9005
bey	-11.9006
▁shade	-11.9009
▁Lauren	-11.9011
▁bounce	-11.9011
Hustle	-11.9012
Sn	-11.9013
▁fantasy	-11.9013
dus	-11.9013
▁condemn	-11.9014
pd	-11.9014
▁dirt	-11.9014
Boxing	-11.9015
Kisses	-11.9016
202	-11.9017
THA	-11.9019
▁triple	-11.9019
▁chillin	-11.9019
▁dump	-11.902
▁Whole	-11.902
Shell	-11.9021
▁Assistant	-11.9021
Wow	-11.9022
Mz	-11.9022
abu	-11.9023
▁Strong	-11.9024
WV	-11.9024
Becky	-11.9025
TheFunnyVine	-11.9025
WR	-11.9026
poet	-11.9026
▁Photoset	-11.9026
▁jumped	-11.9027
▁celebrity	-11.9028
▁tracks	-11.903
Excuse	-11.9032
▁Voting	-11.9033
cutie	-11.9034
fect	-11.9034
▁Russell	-11.9034
leaf	-11.9035
PY	-11.9035
Mariah	-11.9035
▁deadass	-11.9036
WD	-11.9036
▁1-0	-11.9036
dry	-11.9037
Typical	-11.9037
▁(8	-11.9038
▁CL	-11.904
▁Capricorn	-11.904
wt	-11.9041
Kick	-11.9041
▁tournament	-11.9042
▁unexpected	-11.9042
iyah	-11.9043
clifford	-11.9043
ania	-11.9044
▁Ride	-11.9045
Quan	-11.9046
Monkey	-11.9046
▁bow	-11.9046
aby	-11.9047
▁INTO	-11.9048
bye	-11.9051
Entrepreneur	-11.9053
pressed	-11.9053
Viral	-11.9055
trend	-11.9055
▁pushed	-11.9058
Hayes	-11.9058
Offic	-11.9058
▁Cloud	-11.9062
Pisces	-11.9062
habi	-11.9065
safe	-11.9066
hani	-11.9066
Lac	-11.9067
210	-11.9069
SteveStf	-11.9069
gran	-11.9071
OOOOO	-11.9072
Pig	-11.9073
CRA	-11.9078
▁bud	-11.9079
▁visiting	-11.908
▁convince	-11.908
hacker	-11.9081
blaze	-11.9082
bour	-11.9082
alexa	-11.9083
▁reform	-11.9083
Respect	-11.9084
Hoops	-11.9084
▁Mill	-11.9085
crimina	-11.9086
▁Shocking	-11.9088
hp	-11.9089
▁Hours	-11.9089
Rex	-11.909
FBI	-11.909
▁Type	-11.9091
▁BET	-11.9091
Theatre	-11.9092
weare	-11.9093
Fisher	-11.9093
glub	-11.9094
Moe	-11.9094
▁extreme	-11.9095
▁investigate	-11.9096
Frozen	-11.9096
▁Inc	-11.9097
committee	-11.9097
yun	-11.9098
hiphop	-11.9098
grade	-11.9098
▁protection	-11.9099
▁Scene	-11.91
▁delayed	-11.9101
⇩	-11.9101
▁scratch	-11.9101
mufc	-11.9101
Labor	-11.9104
▁Between	-11.9107
Kur	-11.9107
Finale	-11.9107
diana	-11.9108
▁naw	-11.9108
Diary	-11.9109
▁Bit	-11.911
▁Express	-11.9111
Sandy	-11.9112
Economic	-11.9112
▁ashamed	-11.9112
left	-11.9115
▁journalists	-11.9117
▁birds	-11.9118
bros	-11.9118
Diana	-11.9118
▁Olympic	-11.9119
Sophie	-11.912
daisy	-11.9122
rav	-11.9122
ก	-11.9123
╩	-11.9123
☼	-11.9123
▁pub	-11.9123
▁explore	-11.9123
▁Mobile	-11.9124
Writer	-11.9125
Mic	-11.9126
Anime	-11.9126
TheWorld	-11.9127
Pos	-11.9128
▁Front	-11.9128
Org	-11.9131
treating	-11.9132
Katy	-11.9132
Adele	-11.9132
lina	-11.9133
ced	-11.9134
necklace	-11.9135
casino	-11.9136
▁Iron	-11.9137
_23	-11.9137
▁technical	-11.9138
Lau	-11.9139
Buffalo	-11.9139
ATED	-11.9142
logy	-11.9143
closure	-11.9145
▁tribute	-11.9145
▁Mass	-11.9145
McG	-11.9146
▁management	-11.9146
Bash	-11.9147
MIC	-11.9147
clark	-11.9147
▁Fund	-11.9147
Standard	-11.9147
▁models	-11.9148
cour	-11.9151
▁writer	-11.9151
KKK	-11.9152
agger	-11.9152
gat	-11.9152
ร	-11.9155
▁covers	-11.9156
LOCK	-11.9157
BeFollowe	-11.9157
Joyce	-11.916
▁MC	-11.916
wrestling	-11.916
Album	-11.9161
Root	-11.9161
▁Forest	-11.9161
UNI	-11.9161
bx	-11.9161
pick	-11.9162
mcg	-11.9163
▁120	-11.9163
▁9/11	-11.9163
Ok	-11.9163
gates	-11.9164
Harvard	-11.9166
Smooth	-11.9166
▁medicine	-11.9166
2002	-11.9169
track	-11.917
OOOOOOOOOOOOOOOO	-11.917
▁Attorney	-11.9171
FP	-11.9171
LOUD	-11.9171
thunder	-11.9172
▁BRO	-11.9173
Camera	-11.9173
AAAA	-11.9174
▁constant	-11.9175
▁wage	-11.9176
receiving	-11.9177
UX	-11.9177
Ethan	-11.9177
RJ	-11.9177
charles	-11.9178
▁jumping	-11.9179
▁Flower	-11.918
ReaI	-11.9181
irish	-11.9182
▁offensive	-11.9185
Ronald	-11.9186
FAMILY	-11.9186
Cer	-11.9187
เ	-11.9188
▁ACTUALLY	-11.9188
whit	-11.9188
▁loser	-11.9189
▁server	-11.919
clu	-11.919
Active	-11.9191
▁WELL	-11.9192
▁insecure	-11.9193
moment	-11.9193
grl	-11.9196
Av	-11.9196
LEG	-11.9196
hoy	-11.9198
zombie	-11.9198
▁HES	-11.9199
Liar	-11.9199
golden	-11.9201
MAS	-11.9202
joke	-11.9202
marijuana	-11.9204
after	-11.9204
▁cries	-11.9205
network	-11.9205
▁83.1	-11.9205
billy	-11.9205
▁Prize	-11.9207
▁polls	-11.9207
▁Patriots	-11.9208
wes	-11.9208
YearsOf	-11.9212
▁46	-11.9213
cooper	-11.9216
iser	-11.9218
ssssss	-11.9218
Hollywood	-11.9219
▁scale	-11.9219
charlie	-11.922
▁awhile	-11.922
▁Rise	-11.922
▁Spot	-11.9221
Penny	-11.9221
moe	-11.9222
tttt	-11.9222
Mitchell	-11.9222
ened	-11.9223
mali	-11.9223
SUGA	-11.9223
Sat	-11.9223
texts	-11.9224
morris	-11.9225
▁gained	-11.9225
oka	-11.9226
Ame	-11.9227
▁Taurus	-11.9227
idk	-11.9228
chelle	-11.9228
Erin	-11.9229
wilson	-11.923
Fandom	-11.923
Leicester	-11.9231
▁Jeremy	-11.9231
▁someday	-11.9231
Summit	-11.9232
▁raining	-11.9233
▁roast	-11.9234
▁thrown	-11.9234
Suck	-11.9234
warriors	-11.9234
▁letters	-11.9234
▁cow	-11.9237
BJ	-11.924
▁Warren	-11.9242
southern	-11.9242
Cory	-11.9243
▁Area	-11.9247
ianna	-11.9249
Rey	-11.925
Kon	-11.9251
hwa	-11.9252
uga	-11.9252
▁emotion	-11.9252
prof	-11.9253
Poshmark	-11.9253
▁perspective	-11.9253
▁Recent	-11.9253
▁Jewish	-11.9253
▁Hop	-11.9254
▁Electric	-11.9254
Month	-11.9256
▁Kong	-11.9256
Japan	-11.9256
▁probe	-11.9256
▁rent	-11.9257
▁user	-11.9258
▁Dating	-11.926
▁stopping	-11.926
▁freshman	-11.926
▁error	-11.9261
Impeach	-11.9262
ardo	-11.9262
▁vision	-11.9264
▁Shawn	-11.9265
▁communication	-11.9265
▁appointment	-11.9265
Demand	-11.9266
egan	-11.9267
oko	-11.9267
Lean	-11.9268
▁Theresa	-11.9269
hurricane	-11.9269
▁slightly	-11.9269
▁touching	-11.927
ISIS	-11.927
px	-11.927
ucci	-11.927
Donna	-11.927
▁Sister	-11.9271
▁elite	-11.9271
molly	-11.9272
tara	-11.9272
RRY	-11.9273
fast	-11.9275
HK	-11.9277
Pray	-11.9277
moan	-11.9277
▁heels	-11.9277
▁TF	-11.9277
▁emojis	-11.9279
foo	-11.928
♦	-11.928
Suit	-11.928
esta	-11.928
living	-11.928
bv	-11.9282
▁Blessed	-11.9283
▁recall	-11.9283
ops	-11.9285
osh	-11.9286
Nashville	-11.9286
ANGEL	-11.9287
REPORT	-11.9287
▁asap	-11.9288
▁COM	-11.9289
Kent	-11.929
▁payment	-11.929
⚓	-11.9291
🐢	-11.9291
Ark	-11.9292
Finger	-11.9292
Tori	-11.9293
▁Generation	-11.9294
upper	-11.9294
oya	-11.9295
dhi	-11.9295
mara	-11.9296
▁conflict	-11.9297
▁familiar	-11.9297
Kal	-11.9297
launched	-11.9298
Couple	-11.93
Automat	-11.9301
prep	-11.9302
wide	-11.9302
SWEET	-11.9303
UNT	-11.9303
▁belt	-11.9305
▁Awww	-11.9305
Tories	-11.9306
root	-11.9307
▁priority	-11.9308
▁maintain	-11.9308
▁POWER	-11.9309
hog	-11.9309
lucy	-11.931
▁Stadium	-11.9311
anya	-11.9311
▁lecture	-11.9313
▁Boyfriend	-11.9313
▁detail	-11.9314
quo	-11.9315
▁Skin	-11.9315
hustle	-11.9315
Leaf	-11.9316
▁yard	-11.9316
kell	-11.9317
Nico	-11.9317
Monte	-11.9317
▁Captain	-11.9317
🐐	-11.9318
unite	-11.9319
▁covering	-11.9319
▁Sehun	-11.932
chew	-11.932
NBCNews	-11.9323
Skill	-11.9324
Berry	-11.9324
▁decades	-11.9324
▁effects	-11.9325
oso	-11.9325
Coupon	-11.9326
▁spiritual	-11.9327
▁reduce	-11.9327
▁sayin	-11.9328
ل	-11.9329
Nee	-11.9329
horny	-11.9331
uwu	-11.9334
Anal	-11.9335
coast	-11.9335
▁Euro	-11.9337
VIP	-11.9337
▁Shoutout	-11.9337
▁knees	-11.9337
Tall	-11.9338
blow	-11.9338
Elliott	-11.9339
nfl	-11.934
vodka	-11.934
Tur	-11.934
Babies	-11.9342
▁Shooting	-11.9344
▁Pin	-11.9345
🌏	-11.9346
Hon	-11.9349
baba	-11.9349
nea	-11.9349
Plan	-11.9351
Zack	-11.9356
▁comic	-11.9356
WSHHFANS	-11.9357
🔊	-11.9357
🔹	-11.9357
Wife	-11.9359
lily	-11.9362
PlayStation	-11.9363
▁Thx	-11.9364
▁subtweet	-11.9364
Liv	-11.9366
Ltd	-11.9367
▁policies	-11.9368
charge	-11.9372
zoe	-11.9372
▁tackle	-11.9374
hii	-11.9375
▁Services	-11.9376
ARS	-11.9376
foster	-11.9378
Gram	-11.9379
🍾	-11.9379
sheet	-11.9379
tyleroakley	-11.9379
Luxury	-11.9379
Bubble	-11.938
▁Thread	-11.938
▁Signs	-11.9381
Arrow	-11.9381
▁ARMYs	-11.9382
wow	-11.9384
▁engaged	-11.9384
Mumbai	-11.9385
▁businesses	-11.9386
iggle	-11.9387
lew	-11.9388
Gallery	-11.939
Burn	-11.9392
EO	-11.9392
naut	-11.9393
nim	-11.9393
▁pounds	-11.9394
▁brutal	-11.9395
▁primary	-11.9396
Holland	-11.9396
▁Arabia	-11.9399
Retail	-11.9401
JBCrewdotcom	-11.9401
▁nowadays	-11.9401
record	-11.9401
1995	-11.9402
Lowe	-11.9402
lipstick	-11.9402
Jenna	-11.9402
Where	-11.9403
▁conduct	-11.9406
Robin	-11.9407
AKA	-11.9409
bron	-11.9411
Strateg	-11.9412
▁troops	-11.9412
▁couples	-11.9413
▁Anybody	-11.9413
▁copie	-11.9413
maya	-11.9414
nder	-11.9414
▁Limited	-11.9414
▁Connect	-11.9415
Rag	-11.9415
Barb	-11.9416
ej	-11.9417
scope	-11.9418
Ghana	-11.9418
Garcia	-11.9419
congress	-11.9419
fw	-11.9421
corporate	-11.9423
miley	-11.9423
Witch	-11.9423
Sci	-11.9424
▁acknowledge	-11.9424
tory	-11.9427
▁wifi	-11.9427
duction	-11.9427
kyu	-11.9427
Wisdom	-11.9429
▁meets	-11.9429
theatre	-11.9431
bish	-11.9431
spirit	-11.9432
ality	-11.9433
▁Fantastic	-11.9433
leon	-11.9433
Number	-11.9434
▁Cuz	-11.9434
dock	-11.9436
rz	-11.9437
▁Actor	-11.9439
▁FIFA	-11.9439
AliExpress	-11.944
cod	-11.9444
💵	-11.9445
find	-11.9446
awards	-11.9446
etz	-11.9446
rink	-11.9446
▁complex	-11.9446
brain	-11.9447
LAR	-11.9447
▁pour	-11.9448
▁feelin	-11.9449
BRIT	-11.945
uro	-11.9451
fucker	-11.9452
Wing	-11.9452
Prob	-11.9453
eco	-11.9454
Goals	-11.9457
pine	-11.9458
Shore	-11.9458
Campbell	-11.9458
mist	-11.9461
▁kicking	-11.9462
Monica	-11.9462
▁threaten	-11.9462
▁Roy	-11.9464
Lad	-11.9464
victoria	-11.9464
▁standard	-11.9465
FIN	-11.9466
ThisIs	-11.9466
Jennifer	-11.9467
▁Pussy	-11.9467
balls	-11.9468
▁55	-11.9468
Manila	-11.9469
Oscars	-11.9469
wai	-11.947
Sleeping	-11.947
yal	-11.9471
cupcake	-11.9473
▁Aye	-11.9473
ShesKindaHotVMA	-11.9473
luxury	-11.9473
JESUS	-11.9473
▁armys	-11.9473
msg	-11.9475
vl	-11.9476
Palm	-11.9478
▁Windows	-11.948
▁nor	-11.9481
sul	-11.9481
▁overall	-11.9483
▁golden	-11.9483
▁command	-11.9483
England	-11.9483
okay	-11.9485
AMERICA	-11.9486
boat	-11.9486
qt	-11.9487
ARE	-11.9487
Rentals	-11.9487
▁Journal	-11.9488
Won	-11.949
▁cared	-11.9492
COM	-11.9493
▁vocal	-11.9493
ONCE	-11.9495
Thot	-11.9495
HayesGrier	-11.9496
▁STAR	-11.9497
weed	-11.9497
chanyeol	-11.9498
broken	-11.9499
horse	-11.9499
▁Philippines	-11.9501
▁Seattle	-11.9502
▁Harris	-11.9503
pipe	-11.9503
lr	-11.9503
jayy	-11.9504
Lance	-11.9504
▁Diamond	-11.9508
▁worrying	-11.9508
Bam	-11.9509
propaganda	-11.9512
skirt	-11.9513
▁hundreds	-11.9513
▁spreading	-11.9514
Fel	-11.9514
▁chosen	-11.9514
ester	-11.9515
Jung	-11.9515
▁haunt	-11.9515
soldier	-11.9516
▁Eyes	-11.9517
Roast	-11.9517
BigData	-11.9519
Serena	-11.9519
eni	-11.9519
▁backlink	-11.9519
VIN	-11.952
▁Thrones	-11.9521
adidas	-11.9521
▁mail	-11.9523
▁ALREADY	-11.9523
🇫	-11.9523
challenge	-11.9524
Votes	-11.9524
Gau	-11.9526
▁Af	-11.9527
▁Switch	-11.9528
Own	-11.9529
pj	-11.953
▁shadow	-11.9531
Marshall	-11.9537
▁survey	-11.9537
blake	-11.9538
▁DOG	-11.9539
SHOT	-11.9539
DaiIy	-11.954
▁Laugh	-11.9543
▁foul	-11.9544
▁Financial	-11.9548
▁recipe	-11.9548
Rally	-11.9549
▁admin	-11.9551
▁Cant	-11.9551
▁virgin	-11.9551
아	-11.9551
▁complicated	-11.9552
▁LEFT	-11.9552
Supreme	-11.9553
▁Dollar	-11.9553
Pam	-11.9555
COR	-11.9556
▁perhaps	-11.9557
▁wipe	-11.9557
▁activity	-11.9557
Navy	-11.9559
fal	-11.9559
CBC	-11.956
pak	-11.9561
Ava	-11.9563
curly	-11.9564
gli	-11.9565
Mommy	-11.9565
kenzie	-11.9567
alice	-11.9568
ollie	-11.9568
스	-11.9568
bg	-11.9568
▁compete	-11.9569
▁apps	-11.957
Pool	-11.957
Winning	-11.957
move	-11.9572
luca	-11.9573
TOGETHER	-11.9574
lopez	-11.9575
▁SINGLE	-11.9577
▁funds	-11.958
Sem	-11.958
Mala	-11.9581
prod	-11.9582
NCAA	-11.9582
spoon	-11.9582
▁Orlando	-11.9583
erica	-11.9588
Instagram	-11.9589
hearted	-11.9589
Singer	-11.9589
laz	-11.9589
bobby	-11.959
▁Steel	-11.959
Professor	-11.9591
cw	-11.9593
▁salad	-11.9593
western	-11.9593
unc	-11.9593
Cookie	-11.9594
▁aim	-11.9596
supported	-11.9597
▁square	-11.9599
Mut	-11.96
▁beast	-11.9603
owen	-11.9603
▁embarrassed	-11.9603
seung	-11.9605
Nude	-11.9606
▁Sony	-11.9606
jelly	-11.9606
▁Singapore	-11.9608
▁Wed	-11.9608
ี	-11.9608
Character	-11.9608
Shock	-11.9611
ological	-11.9611
stro	-11.9613
Rea	-11.9613
blu	-11.9613
▁releasing	-11.9613
▁rolls	-11.9615
Esp	-11.9615
▁supply	-11.9616
Sai	-11.9618
Gam	-11.962
▁Loved	-11.9621
▁contain	-11.9623
swagg	-11.9624
🍟	-11.9625
Santa	-11.9626
▁Piece	-11.9626
▁Modern	-11.9627
auto	-11.9627
Joke	-11.9627
▁spotted	-11.9628
🚫	-11.963
AaronCarpenter	-11.963
WhiteHouse	-11.9632
▁hyung	-11.9632
▁gig	-11.9633
pjm	-11.9633
YES	-11.9634
▁Register	-11.9635
Double	-11.9637
soon	-11.9638
Gucci	-11.9638
Vice	-11.9639
global	-11.9639
dit	-11.9642
TUR	-11.9644
dent	-11.9644
guk	-11.9644
▁Cheers	-11.9645
lll	-11.9649
haha	-11.9649
Universal	-11.9649
LET	-11.965
eman	-11.965
Shot	-11.9652
▁dunk	-11.9652
gaga	-11.9653
wink	-11.9656
▁(;	-11.9656
ISS	-11.9656
▁bedroom	-11.9658
Rams	-11.9658
pir	-11.9659
finance	-11.966
local	-11.9661
▁finale	-11.9662
Var	-11.9662
Eh	-11.9663
▁magazine	-11.9663
machine	-11.9664
LadyGaga	-11.9665
kidd	-11.9665
Bern	-11.9665
mood	-11.9666
bid	-11.9668
▁environment	-11.9669
map	-11.9669
Dare	-11.9671
▁wassup	-11.9671
proud	-11.9671
Romeo	-11.9672
▁claiming	-11.9672
tennis	-11.9672
▁hall	-11.9673
▁Hahahaha	-11.9674
LOT	-11.9674
wayne	-11.9674
Lamb	-11.9678
201	-11.9678
Musical	-11.9679
▁experienced	-11.9679
Posobiec	-11.9682
╣	-11.9682
🇭	-11.9682
😵	-11.9682
▁vagina	-11.9682
Vince	-11.9683
▁65	-11.9685
▁instantly	-11.9685
Spi	-11.9685
▁mutual	-11.9687
Late	-11.9687
ete	-11.9687
loud	-11.9687
atic	-11.9689
inspiration	-11.9689
▁ACC	-11.969
rak	-11.9691
▁comm	-11.9693
▁Morgan	-11.9694
▁Teaser	-11.9695
ailing	-11.9695
dork	-11.9696
pow	-11.9697
▁pledge	-11.97
▁Mum	-11.9701
Horny	-11.9701
mona	-11.9701
Heaven	-11.9702
Meg	-11.9702
▁rings	-11.9702
orry	-11.9703
Boots	-11.9705
ott	-11.9705
▁property	-11.9705
appy	-11.9706
nix	-11.9707
▁Mountain	-11.9708
Jew	-11.9708
▁Meeting	-11.9709
LIFE	-11.9709
Zendaya	-11.971
haw	-11.971
Rl	-11.9711
announces	-11.9711
▁Sweat	-11.9713
sole	-11.9715
mcm	-11.9715
▁fade	-11.9715
▁protecting	-11.9716
Ginger	-11.9717
pose	-11.9718
Carly	-11.9718
Asian	-11.9723
politico	-11.9724
▁owners	-11.9724
Infinity	-11.9726
▁liberals	-11.9726
▁Except	-11.9727
▁THO	-11.9727
[...]
